#version: 0.2
Ġ t
h e
Ġ a
o u
Ġ s
i n
Ġ m
Ġ w
r e
h a
n d
Ġt he
Ġ b
i s
e r
o r
l l
Ġ f
o n
i t
Ġ I
Ġ d
e s
Ġ c
Ġ l
Ġ o
Ġ y
Ġ n
e n
Ġt h
a r
Ġ h
Ġy ou
Ġ p
Ġt o
ha t
Ġa nd
Ġo f
o t
Ġ he
a n
v e
in g
o w
o m
s t
Ġ g
a t
Ġb e
Ġ in
s e
c e
Ġm y
Ġ ha
e t
l e
a y
l d
u t
Ġm e
it h
i r
i m
' d
c h
e d
Ġn ot
g h
Ġ is
' s
i ll
Ġt hat
Ġ T
o o
Ġ e
Ġf or
Ġ A
ou r
k e
Ġ u
Ġ W
Ġw ith
Ġw e
en t
a d
Ġ it
a s
i d
Ġyou r
A nd
a l
he r
t er
Ġ S
Ġh is
E R
Ġ C
r i
Ġs t
r a
Ġth ou
Ġh im
gh t
Ġ O
Ġ H
om e
Ġth is
Ġ M
Ġha ve
or d
Ġ re
l y
u r
Ġs o
Ġ on
E N
Ġl i
Ġa s
U S
v er
Ġ B
Ġ k
o re
ou ld
I N
a in
a m
r o
Ġd o
Ġd e
Ġw ill
A N
u s
oo d
h i
E S
c k
A R
Ġs ha
O N
Ġ P
e a
i on
T he
es s
es t
a nd
Ġ G
Ġ E
Ġ L
Ġs e
O R
Ġhe r
Ġth y
n t
t h
Ġl o
Ġn o
g e
Ġb ut
Ġa n
Ġs u
Ġa ll
Ġ F
r u
i l
a ke
i f
e ar
e ll
Ġs p
Ġ D
Ġf a
c t
Ġ '
Ġ N
Ġk n
Ġthe e
Ġsha ll
i ght
S T
h o
T o
Ġ v
Ġa re
ha n
r om
a st
Ġb y
Ġ our
ar d
Ġs h
ar t
Ġm an
he n
Ġn e
A L
e nd
Ġa t
in e
ou s
an t
Ġa m
O L
he re
Ġu p
T hat
Ġl ord
Ġm u
T H
Ġc om
ou t
se l
on e
' ll
q u
Ġg ood
i e
in d
u l
re s
Ġc on
i ve
e m
hi ch
Ġg o
Ġ Y
on g
b le
L E
Ġf rom
Ġw hat
r y
er s
v en
n ter
R O
r ow
Ġthe m
a u
Ġs he
ot h
Ġkn ow
Ġlo ve
Ġ R
Ġb l
Ġs w
Ġw as
h y
I C
Ġw ould
i c
L O
Ġm ore
Ġp r
p p
a ll
at h
Ġc an
Ġ hat
Ġn ow
Ġthe re
e p
o st
Ġthe ir
f e
o l
Ġ or
e l
Ġthe y
Ġw or
U C
Ġt han
sel f
u re
Ġa r
at e
Ġs ir
I A
ĠW hat
Ġ if
E nter
in k
Ġs ay
I O
Ġu s
Ġ K
Ġl et
IN G
B ut
u e
is h
Ġhe re
or t
E D
n g
a re
ĠT he
ot her
T h
re at
u m
v es
E L
f ore
at her
oo k
o d
Ġ r
Ġhat h
a k
Ġwe ll
am e
I US
A s
i g
Ġse e
Ġthe n
Ġp l
Ġon e
ou nd
Ġli ke
F or
Ġb r
Ġ j
Ġc ome
Ġd id
ĠO F
Ġsh ould
ĠH e
Ġu n
Ġm ay
an ce
g ain
Ġm ad
Ġm ake
ĠT h
ea k
Ġh o
u n
id e
Ġd is
Ġup on
i ce
Ġ out
ver y
Ġs a
U T
Ġw hich
Ġmu st
Ġwe re
Ġ [
p e
Ġha d
K ING
it y
im e
I S
Ġt ru
I R
p t
Ġto o
Ġ qu
en ce
T R
Ġp ro
u nt
t her
or n
Ġhe art
i es
Ġha nd
Ġw hen
Ġsu ch
AN T
I B
Ġ J
Ġp o
Ġh on
Ġ en
ER S
n ess
I L
Ġe x
a ve
o nd
f f
Ġa gain
Ġsp eak
Ġa l
ĠC O
Ġe y
in ce
is e
w n
ĠK ing
as s
Ġy et
is t
i ck
i re
Ġof f
Ġs ome
ad y
E x
ou gh
A C
Ġw ho
Ġthe se
e et
' t
c i
Ġf ri
AR D
ur n
a ck
ĠE x
ow n
Ġth ink
W ith
Ġf ather
Ġm ine
ĠA nd
o y
o se
ing s
ĠA N
Ġf o
a ge
e unt
Ġa b
Ġh ow
Ġg reat
Ġhe a
Ġt ime
Ġg ive
w ay
ĠY ou
H e
Ġc ha
Ġt ake
Ġmu ch
Ġ V
a g
Ġm ost
at ion
Ġt w
ast er
ent le
f ul
I n
Ġfri end
ĠW hy
A D
t o
ES S
IN E
Ġt ell
re e
Ġd ay
Ġw here
I ST
u st
o s
Ġ ro
Ġbe t
a p
Ġm ar
er t
E M
Ġf l
Ġg ra
Ġhe ar
E C
Ġb re
Ġm en
Ġl e
O f
i o
Ġl ea
ig n
Ġbl ood
u ll
Ġd es
res s
B e
I T
n ot
Ġl ook
Ġar t
Ġw ord
it her
Ġne ver
Ġp art
ĠM y
l i
Ġo ther
I f
U R
Ġde ath
oo l
ou nt
Ġli fe
Ġw r
ĠB ut
a se
m ent
Ġs on
OR D
W hich
Ġe ar
i gh
M y
ou l
Ġg entle
Ġs er
P H
Ġfa ir
Ġf ear
Ġd oth
ĠN o
Ġ ri
I ON
Ġt r
a ce
t le
C A
Ġs c
w ard
Ġp le
d e
it e
ĠI f
F F
o ld
an s
Ġo wn
H A
Ġan y
Ġcom m
c es
t is
Ġw ar
Ġhon our
EN E
AN D
B ER
Ġsw eet
Ġa d
I M
h ing
e e
Ġc l
Ġhea ven
ĠG od
G E
Ġmad e
I AN
m an
Ġtru e
Ġ ra
o ve
W hat
Ġc all
Ġp er
n ce
f t
l and
Ġn ight
row n
Ġ very
ĠS ir
K E
p er
ĠP r
ll ow
s w
ct ion
L Y
au gh
Ġw h
nd er
ĠH ow
a ble
Ġha st
A B
Ġ ke
IST R
o ck
Ġcan not
Q U
Y ou
b er
Ġa pp
ou se
Ġp re
ĠAN D
v ing
W N
ĠO R
I D
l es
Ġw it
C E
Ġpr ay
Ġwor ld
Ġey es
Ġa f
P E
c c
T ER
Ġbe en
ĠC ome
Ġst r
Ġa way
T E
ĠF OR
or row
Ġbr other
C ENE
Ġc our
ĠB Y
IB UT
ĠCO P
ISTR IBUT
R E
Ġ im
Ġbe ar
L A
Ġd one
W hen
c he
ĠL ord
W ho
Ġd own
T is
u d
if e
C H
Ġn or
Ġn ame
ĠA y
W e
s s
Ġ ru
Ġcom p
Ġw om
ain t
Ġw ay
Ġst and
Ġtw o
Ġhe ad
O M
re d
Ġl a
S o
ĠI t
O r
Ġe ver
IR ST
t he
Ġo ld
Ġbe fore
ĠM ar
Ġcon t
Ġno ble
Ġm ight
F IRST
w e
Ġne w
Ġlea ve
u ke
Ġthou ght
UC H
D U
k s
Ġar m
Ġl ady
Th is
Ġp res
Ġs l
is s
Ġth us
e f
Ġf ool
ĠTh is
f or
p le
EN T
ear s
p s
as on
au se
ĠC a
Ġl ong
at ch
ir st
l ess
Ġcom es
augh ter
m e
Ġbe g
Ġc ould
or s
Ġp ur
Ġbet ter
a ch
ou ght
Ġs oul
n e
Ġre m
c ome
an g
Ġha r
at ter
P RO
ER V
ea ce
ĠL et
Ġ (
Ġde ad
Ġsh ow
S S
ha ll
Ġpo or
Ġf ind
Ġh ouse
Ġin to
i ous
P A
i a
Ġb est
ow er
I s
Ġk ing
Ġke ep
Ġbe ing
ĠD uke
Ġm er
Ġnot hing
Ġre p
M ER
Ex eunt
Ġman y
c y
t y
b e
Ġb oth
Ġe nd
i us
e w
Ġ ent
ĠW ell
Ġli ve
nt o
ak es
Ġser v
R e
d s
i ed
W here
r ance
Ġb ra
ON D
Ġg l
Ġe very
Ġp ut
Ġmy self
ĠEx eunt
t end
ĠP RO
l f
Ġst ill
i an
in s
et h
ĠT here
H ow
i er
u ck
The re
ĠN ow
un e
w ell
Ġm aster
hi p
Ex it
Ġf ell
it tle
ĠEx it
Ġfriend s
c l
Th ou
Ġs m
Ġw ife
ar k
ĠS o
v il
ES TER
B y
m p
Ġs et
re n
OR K
Y R
ĠW e
ra ce
m en
Ġfo llow
I ES
Ġli e
r ant
Ġt ong
ĠT o
ĠI S
Ġn at
i le
ĠTh ou
b l
on s
EC OND
es ar
Ġl ittle
ĠE ng
a c
ĠT hat
ĠCO M
Ġde ar
Ġth ose
O ST
S ECOND
Ġf irst
Ġh our
Ġho ld
in t
N C
Ġs le
Ġd aughter
a id
it s
ut h
ie ld
Ġyou ng
ĠN ay
. '
Ġd ie
ĠG ood
Ġlord s
ĠHe re
O TH
Ġcon f
E T
US E
ON IC
S CENE
re t
ĠI s
Ġg one
al k
L UC
ha r
Ġg u
Ġan sw
Ġc hi
ĠR ome
l t
A T
I t
I AL
ĠE LE
Ġcon s
Ġey e
MER C
1 9
C TR
T han
ĠI NC
ĠA RE
il t
ĠD ISTRIBUT
LO UC
ĠCOP IES
ĠELE CTR
MERC IAL
19 9
LOUC ESTER
ĠELECTR ONIC
Ġc o
Ġagain st
in ess
Ġre st
D ES
Ġm ind
Ġhim self
Ġth ine
Ġe l
Ġfor t
Ġpl ace
DU KE
i v
Ġt ra
H E
Ġfa ll
Ġwor th
en s
Ġb oy
est y
ĠD o
ou d
g et
Ġst ay
ist ress
G O
L IA
le d
ĠB e
Ġpl ay
QU E
Ġwom an
Ġfa ce
ĠCa esar
QUE EN
Ġsw ord
Ġc h
ut y
Ġt ri
ow s
Ġg ri
U N
Ġf e
Ġp ass
Ġk ind
L et
ĠT hen
is on
Ġp eace
ed s
B A
Ġn one
Ġword s
Ġcour t
ir t
Ġt ill
Ġm other
ĠG o
ANT ON
Ġf ull
Ġansw er
A M
Ġc ur
Ġg i
Ġcha r
a le
e ct
Ġtong ue
r ing
Ġp e
B R
O WN
Ġt urn
Ġaf ter
R Y
a b
Ġre s
Ġpres ent
Ġel se
H is
Y our
it ion
ul t
Ġbr ing
S AL
Ġfor th
IC K
Ġri ght
Ġim p
Ġu nder
U M
Ġt re
Ġd ra
EN RY
Ġh us
Ġthou gh
Q ue
p on
Ġc he
ĠA n
Ġb ack
ĠF rance
Ġwho se
A FF
b and
Ġc ount
Ġme an
Que en
s and
IC H
as ure
Ġbe l
ĠH ENRY
Ġsp ir
Ġwr ong
Ġon ce
Ġp ri
a il
Ġc han
Ġc rown
Ġme et
Ġse em
Ġm atter
Ġsa id
ee ch
ĠL ORD
Ġsu b
Ġchi ld
Ġb id
ST AFF
H am
i x
o h
Ġa cc
on t
O T
ill ain
hi le
ĠW here
or se
Ġre ason
Ġfa ith
Ġlet ter
ri ed
Ġho pe
Ġh um
AL STAFF
I Z
a ir
ĠA nt
Ġre t
AR G
oh n
Ġu nto
Ġd re
Ġin de
Ġear th
The y
Ġan other
b t
Ġf al
Ġp ra
p h
or y
G LOUCESTER
at i
Ġth ing
Ġth ree
Ġhus band
Ġm o
Ġb od
Ġk ill
ĠB y
sel ves
Ġthere fore
Ġinde ed
S t
Ġb es
Ġo ver
Ġth r
Ġple ase
A Y
Ġh ome
Ġso ld
Ġab out
Ġas s
is ter
ar y
et s
ĠC l
Ġc ou
ĠS t
I P
OR L
C LO
o f
en e
Ġhe nce
Ġe ven
Ġst re
Ġli ght
IC E
EL LO
ICH ARD
O B
ĠB r
As ide
S hall
ĠF or
Ġsle ep
Ġc ause
Ġhe l
Ġhand s
Ġtr uth
Ġd ou
Ġhe ard
ĠW ho
Ġthou sand
an y
Ġha s
Ġdo st
ert ain
Ġwh om
Ġnat ure
U pon
on y
fe ct
Ġfal se
v y
Ġu se
Ġmad am
L ES
Ġm on
ard on
F ALSTAFF
ER M
TH ERS
pe ct
om et
ĠA l
D o
E TH
m s
im es
Ġj ust
N o
S ERV
Ġsu re
Ġv irt
ant s
Ġthan k
Ġdis c
ci ous
I OL
Ġbe d
Ġv illain
Ġp ower
Ġ i
ĠI I
d ay
Ġst ate
ur y
m b
Ġwith in
Ġ "
ĠG race
Ġv al
Ġs ent
Ġla w
Ġc ar
che s
H ave
Ġm akes
Ġw ind
Ġyou th
Ġnew s
A G
N ow
f ort
n ing
Ġsha me
l ou
Ġgo ld
UT US
e al
ĠM aster
ut e
ĠM AC
Ġbre ak
Ġth ings
Ġh ither
ve re
Ġm is
M AN
u nd
Ġ Queen
Ġb us
Ġf ar
b s
R IN
a j
Ġf ight
an ge
Ġbe a
au d
u se
Ġb u
ce ive
AN IO
IL LIA
ILLIA M
L U
ad e
ĠEng land
L IN
O UR
T hy
Ġe re
Ġwe l
I G
ou ch
Ġc ame
Ġha pp
ar s
ie ve
RO SAL
i ld
y al
ĠW ill
EC T
C OM
F rom
N or
Ġb an
Ġg r
ĠC H
The n
C ome
W ill
our s
b y
p ose
Ġs ince
Ġdo es
Ġsha lt
ON G
PRO V
BR UTUS
Ġhel p
Ġm aid
ion s
ct or
Ġgentle man
Ġad v
d d
Ġgra ce
Ġfell ow
P r
Ġ ill
Ġl and
Ġy e
OR T
ĠR ICHARD
get her
' re
Ġr ather
O ur
ver s
Ġgo ds
p l
en er
ĠS he
Ġse c
ĠY our
Ġbod y
. ]
ĠJ ohn
Ġen ough
ĠPr ince
S he
Ġs ound
or k
ĠI n
ĠN ot
Ġde vil
OTH ELLO
P LE
c om
Ġwith out
Ġen em
p en
ous in
IA GO
A TH
e ed
Ġt ears
Ġl ast
at es
Ġin st
Ġat tend
el s
A l
Y et
Ġha ng
Ġsu n
Ġhon est
aj esty
n er
Ġb o
Ġl ay
Ġg re
ĠE d
c le
j ect
u es
M AR
e en
Ġc are
id es
IS S
Ġwel come
i ly
Ġp ers
Ġse en
Ġfa ult
g er
Ġst ri
Ġse nd
ho ld
CA SS
AB LE
we en
i ers
t en
ur ther
u ff
ent s
ent er
Ġgri ef
D EM
i ke
Ġsa w
Ġcomm and
CLO WN
Ġn ear
Ġsw ear
n ow
Ġh igh
Ġp ati
Ġme ans
Ġk iss
Ġm istress
Ġf ire
Ġl ess
ĠA t
Ġyour self
OL K
Ġbre ath
Ġstr ong
at s
Ġw hy
ĠB E
Ġfort une
Ġspir it
W hy
n ight
ĠT IM
ĠT HE
ain s
AC T
Ġstr ange
A n
I TH
i z
U n
Ġp al
Ġj oy
ANTON Y
he s
H ath
M EN
S H
Ġw ish
ad s
us ic
He re
EM B
Ġrem em
Ġwe ep
P RIN
p eak
PA TR
l et
Ġs ea
Ġg row
IN IUS
Ġlo st
ang er
a w
d om
r an
w ith
Ġyour s
gain st
W ICK
Ġon ly
Ġsp o
LE O
Ġret urn
Ġs omet
UT EN
Ġru n
PATR A
LEO PATRA
t w
AR WICK
one y
HA M
r ink
Ġs ick
if t
Ġpro ve
Ġarm s
Ġh orse
Ġg et
al th
Ġthr ough
Ġp ardon
Ġne ed
ĠThe y
i et
Ġst ra
Ġd ru
H IP
S E
m er
se d
Ġcount ry
k en
Ġt alk
ou th
Ġf ree
it he
Ġp rom
ĠW ILLIAM
V IA
X T
m orrow
o ple
Ġd en
ĠS O
ĠH er
OL I
ERS ON
ĠM AY
Ġro yal
li ke
IAN A
Ġthought s
ENT LE
u ch
st er
Ġle ft
G ER
Ġs orrow
er v
Ġc ousin
Ġto gether
ĠA s
Ġit self
ĠS ERV
Ġv o
Ġhar d
Ġw ant
en ry
. ,
D ER
ĠO THERS
har d
ĠS YR
ĠC ass
ĠR E
AC USE
HA T
ren ch
ĠSYR ACUSE
C L
o p
Ġf ly
Ġsu pp
Ġbus iness
Ġb orn
Ġf ound
IN D
ĠN or
TH IS
ĠY ork
Ġal one
IG H
Ġs ing
Ġf ore
Ġf oul
ro ss
BER G
A S
G R
Ġt em
Ġs ight
Ġw ilt
ĠL ONG
Ġsay s
Ġsee k
Ġj ud
Ġha lf
Ġre ad
ESS EN
Ġc ry
Ġg ener
Ġli es
RO M
TE XT
Who se
ESSEN GER
K ES
a v
o e
Ġl ate
AR E
AR Y
ond er
for m
ar ry
ĠW hen
Ġblood y
Ġserv ice
BA ST
Ġdra w
Ġ US
Ġto ld
ĠC OL
Ġcom fort
Ġpr oud
Ġdis t
Ġbea uty
IGH T
P ERSON
l s
Ġg ave
ĠT HAT
ĠA S
IC T
ĠTIM E
. >
< <
A ll
D ISTRIBUT
H IB
H INE
J ECT
L LIN
N ot
N LY
O IS
R ARY
S HA
T IM
W ITH
Ġ USE
Ġ 199
ĠI LLIN
ĠW ORK
ĠW ORL
ĠS UCH
ĠO NLY
ĠM EMB
EN ED
ĠB ENED
ĠP ERM
ĠG UTEN
ĠE TEXT
ĠL IB
ĠD OWN
ĠN OT
ĠY OUR
LE GE
LO AD
ERS ION
ERS HIP
ĠAN Y
ĠV ERSION
AD ABLE
IT ED
ID ED
PE ARE
ĠCOP YR
ĠPRO HIB
ĠPRO JECT
ĠCOM MERCIAL
ĠCOM PLE
ĠINC LU
ĠDISTRIBUT ED
ĠDISTRIBUT ION
MERCIAL LY
199 3
ARG ES
SERV ICE
ĠMAC HINE
COM MERCIALLY
ĠCH ARGES
PROV IDED
ISS ION
ithe e
ĠRE ADABLE
KES PEARE
ĠUS ED
ĠCOL LEGE
PERSON AL
ICT INE
.> >
DISTRIBUT ED
SHA KESPEARE
Ġ199 0
ĠILLIN OIS
ĠWORK S
ĠWORL D
ĠMEMB ERSHIP
ĠBENED ICTINE
ĠPERM ISSION
ĠGUTEN BERG
ĠLIB RARY
ĠDOWN LOAD
ĠCOPYR IGHT
ĠPROHIB ITED
ĠCOMPLE TE
ĠINCLU DES
E d
Ġa w
re st
ĠAnt ony
ROSAL IND
m ost
Ġm et
Ġwe ar
Ġfa re
Ġdou bt
P ER
g s
l ish
u res
Ġs ister
Ġc a
Ġre ven
A re
R S
Ġb ro
Ġpr ison
k es
Ġs ame
Ġse lf
Ġex ce
Ġs it
it or
Ġwor k
ces ter
Ġpur pose
Ġpe ople
TIM ON
H er
I PH
Ġt end
Ġb ri
Ġf ield
Ġc ra
ur se
ĠL u
M AC
i al
r s
Ġo ath
Ġp ity
ĠF are
ound s
u p
ĠS CENE
Ġde f
Ġhat e
Ġdes ire
B ETH
Ġde p
S h
u b
Ġc old
ĠT ro
ĠH enry
ON T
Ġsu ff
IM O
C LEOPATRA
W ARD
Ġs il
oo se
Ġqu ick
e on
x t
ĠP A
OL US
IPH OLUS
Ġf it
Ġl ear
at er
Ġknow s
ci us
M RS
Ġs ad
C l
Y ORK
Ġa ir
Ġd am
Ġc ond
om an
ĠG ENTLE
Ġlo se
Ġdis p
Ġbes eech
Pr ince
ĠSERV ANT
O n
Ġt imes
Ġa ff
Ġw in
ha m
ĠA r
ĠA ll
Ġso on
c ess
ĠH igh
Ġlook s
L ear
n o
Ġin t
Ġdre am
H N
O HN
Ġa ge
Ġd are
AR US
Ġfo ot
T A
l ing
Ġs k
Ġfor g
EL EN
a im
b our
o or
v ent
Ġd anger
ĠM ajesty
ĠF rench
Ġv i
Ġcomp any
g g
Ġs en
et er
Ġun cle
ment s
A U
Ġw a
ur d
Ġde l
ic es
ĠK ING
Ġtru st
Ġcomm on
Ġchar ge
Ġcou n
Ġs in
Ġday s
AB EL
C OR
c ause
i ble
t ed
Ġt er
re w
Ġd rink
Ġe ach
Ġu nd
a z
i ves
Ġmar k
a ff
w ick
Ġm usic
Ġin f
Ġlo ves
Ġpr ince
Ġgener al
A t
E ven
S IR
Ġli ves
IT IZ
Ġser ve
Ġworth y
ITIZ EN
W ARWICK
Ġo b
Ġas k
ROM IO
ĠPA GE
ĠHigh ness
K ing
T ill
Ġw ise
er ve
Ġc ho
ut us
Ġsu m
Ġfa v
ak ing
Ġqu een
Ġgra cious
Ġbel ieve
B O
C R
L EN
ar wick
AR M
Ġbet ween
Ġgra ve
ABEL LA
ad am
ie f
Ġhapp y
f ord
t ing
y ou
ĠG ive
ic hard
IT US
lou cester
ĠGENTLE MAN
g ue
ha l
Ġb at
Ġy ears
Ġy ield
Ġthy self
Ġho ly
Ġb ir
Ġf urther
Ġp ar
ĠW ith
EN IUS
Ġknow n
ANT IPHOLUS
Ġwr it
D id
s hip
Ġb ound
est ion
fe ction
Ġmar ry
Ġother s
Ġwar rant
Ġbra ve
M ore
e ver
Ġbr ought
Ġcont ent
p r
re m
Ġhe ll
UC KING
un es
TR UCH
Ġgi ven
UCKING HAM
TRUCH IO
Ġb ar
Ġc ertain
ow ard
Ġde ep
AN US
AD Y
ĠPr ay
IOL ANUS
G o
P AR
P AND
U FF
g ar
Ġc ut
ĠW arwick
Ġple as
Ġvirt ue
ĠEd ward
UFF OLK
Ġa c
Ġm in
er y
Ġp ast
ON A
ĠY es
Th ough
B UR
F al
F ORD
Ġm oney
ent y
Ġre c
Ġso vere
Ġple asure
UN T
K ATH
S ome
i ant
Ġa ct
Ġd iv
T RO
W ould
Ġs ake
Ġs ide
Ġp ay
us h
Ġsa ve
Ġpo ss
Ġpo int
Ġrep ort
L ike
Ġw hile
ll y
Ġbe at
ĠC ITIZEN
ĠE nter
Ġle ad
ĠMar ry
e k
Ġc or
ĠT OB
Ġheart s
Ġri ch
OWN E
Ġpra ise
ĠTOB Y
H ELEN
V AL
V OL
Ġb old
oo f
ES AR
ĠJ OHN
ĠEng lish
Ġpers on
o int
Ġt ouch
Ġm ock
ot s
Ġkn ave
ĠR ichard
Ġt en
Ġm outh
an c
st and
Ġin c
Ġde v
ĠG loucester
ie ce
ENT INE
DES DEM
Ġlear n
DESDEM ONA
B EL
D ROMIO
Ġs ur
Ġst e
Ġre qu
ESS ID
ĠBr utus
Ġgr ound
ESSID A
Ġ est
Ġm orn
Ġc ol
Ġlo v
LO W
ink s
Ġhea vy
C AL
t hat
Ġw is
Ġg all
al t
th ing
Ġsu it
Ġmer cy
MEN ENIUS
! '
I ER
es h
Ġg ar
ed i
ĠM adam
hi l
ĠL ook
AL LOW
OL LES
Ġson s
BER OWNE
TE US
Ġconf ess
Ġsold iers
Ġenem y
Ġtend er
W as
c ha
i or
Ġs ign
Ġf our
ce ed
ĠF R
Ġkn ight
PE TRUCHIO
R om
Ġp en
ri es
am p
OL D
Ġbl ack
Ġb os
Ġe at
ES US
Ġgo es
IL US
PH ESUS
Ġwom en
Ġfare well
e c
i res
Ġw oo
Ġw atch
as k
IR D
Ġpro f
B US
our ish
AN CE
Ġfa st
Ġv is
Ġr ing
Ġmer ry
Ġsub ject
C US
f ter
re ady
ve l
at ed
Ġkn ew
TH IRD
all y
Ġcour se
There fore
Ġpati ence
. -
Ġc ast
Ġh ot
Ġsh ort
Ġthem selves
We re
Ġbos om
T w
s ue
Ġb urn
Ġd ro
Ġo pen
ed ro
Ġne xt
Ġbl ess
Ġchan ge
u ous
ir m
ĠE PHESUS
Ġqu ar
Ġvo ice
VAL ENTINE
H OST
Y M
o ver
Ġb ase
Ġex p
os s
Ġdes p
ORT IA
CR ESSIDA
PAND ARUS
! -
Ġto wn
ot e
ri ce
Ġdo g
ge l
eth inks
Ġgu ard
ix t
COR IOLANUS
g es
r ay
Ġwe ak
ĠH is
AN S
Ġtru mp
Ġent er
Ġent reat
Ġban ish
Ġpal ace
Ġsovere ign
w eet
Ġ ord
Ġl ad
Ġto ward
ra h
Ġde ed
Ġsp eed
Ġne ither
Ġat t
ĠY et
Ġwor se
Ġtoo k
Ġear s
Ġapp ear
Ġstra ight
Ġha ir
EN CE
ast e
Ġhast e
at is
Ġbe hold
ur t
ag ue
ANTON IO
Ġval iant
, '
G ive
b ly
he d
Ġw all
Ġw ret
on es
ort al
Ġex c
Ġgentle men
PRO TEUS
Ġremem ber
A P
Ġw alk
Ġpl ain
Ġpro p
Ġpro v
IL IA
Ġserv ant
C an
s o
Ġt a
Ġw ater
ĠH ave
RO KE
Ġdid st
Ġqu estion
ĠII I
MAC BETH
HELEN A
G EN
Ġw oe
Ġd uty
ĠC h
we re
Ġlie ge
PRIN CE
Ġcoun sel
AR BUS
IST OL
ull y
Ġsomet hing
Ġdam n
PAR OLLES
S UFFOLK
s h
it ies
Ġof t
Ġu nt
row s
au ght
Ġsold ier
J A
r ous
Ġw onder
Ġb ad
Ġe mb
ri age
th y
ĠR e
pt ain
Ġtra itor
Ġfe el
B UCKINGHAM
F E
N OR
Ġnot e
ĠH a
EN OB
Ġcan st
fe it
CA ESAR
Ġapp ro
BUR Y
ENOB ARBUS
C O
Ġo pp
ce pt
Ġdo or
Ġne eds
Ġcom ing
ĠHe ctor
Ġtw enty
Ġhar m
Ġgl ad
Ġjust ice
CASS IUS
SH ALLOW
ONT ES
D WARD
M ay
m ber
Ġw he
Ġc ity
ĠS hall
ck s
ea st
ea ch
ĠE DWARD
Be fore
AND O
ĠAl as
B OT
B ene
T ITUS
b it
c ent
h ood
i p
m y
in es
Ġc r
Ġc le
Ġl ack
ĠE m
Ġsp ort
Ġsp eech
um ber
ond on
Ġfl esh
IOL A
ĠFare well
L ADY
on a
ĠS EN
Ġde li
ĠL ady
Ġpr ithee
Ġoff end
Ġsc orn
GE LO
ĠRome o
dd en
Ġspo ke
Ġc oward
en ess
Ġg ro
as c
IC INIUS
ol k
Ġal most
Ġal ready
Ġstre ng
Ġreven ge
M ESSENGER
P edro
P ORTIA
T EN
c her
v ol
Ġm ove
ĠS c
am ent
ĠD U
Ġhour s
TRO ILUS
I FF
K ent
b ert
Ġc ap
ĠS peak
ĠM istress
Ġkn e
che d
ĠCass io
Sh ould
S PER
c on
Ġf ra
Ġg rant
Ġmar ried
aud io
Ġsuff er
SPER O
S ince
u ght
re l
Ġli ps
ĠP eace
Ġpl uck
Ġcl ose
Ġwit hal
Ġpresent ly
Ġfav our
H IL
b b
r ist
Ġa g
Ġl augh
Ġp ow
as hi
ER D
Ġre d
The se
um b
Ġstand s
LUC IUS
ARG AR
Ġmo on
A gainst
L ook
L eon
Ġa ction
Ġb ook
Ġb ond
it es
Ġd u
Ġd ark
Ġc reat
Ġhe ir
Ġfor b
ĠA way
Ġst ir
ĠO r
ru st
With in
Ġpre t
aint ed
UN CE
Ġ U
Ġm ot
Ġbe come
Ġin d
et ch
oo p
al m
Ġlo ss
Ġwar s
Ġheaven s
Ġden y
OLI VIA
M AL
P ISTOL
Ġl ow
Ġp u
Ġbe ast
ri ve
Ġv ile
end s
Ġcon st
Ġsw orn
Ġj est
IS ABELLA
ci ence
Be at
Ġtr ou
Ġad d
Ġwh ite
Ġpre p
Ġgri e
Ġres pect
ĠCl audio
Ġmorn ing
Ġstreng th
n k
is ed
Ġh ide
LE ONTES
TR AM
Cl aud
Ġbat tle
C om
J ul
ll ent
Ġp ale
as h
ĠS ay
Ġsu dden
em pt
Ġsc ar
PE ED
Ġsl ain
ĠDU KE
ARGAR ET
m it
Ġw ild
Ġf east
ir d
RE Y
Ġsl ave
V IOLA
o in
s es
Ġ id
Ġm od
Ġin ter
Ġfor m
OL PH
EL IA
Ġtru ly
Ġspeak s
Ġoff ice
ARD OLPH
Ġsen se
g ment
m and
p es
Ġm ess
Ġp ap
ce iv
ut ion
ĠH el
Ġre g
ro ke
ak en
Ġex t
ĠTro y
C ON
e em
h ind
Ġt y
ĠI V
Ġe m
ĠW ould
Ġse ver
ENT IO
Ġking dom
be y
Ġunder stand
ORL ANDO
y our
Ġf at
Ġp it
Ġthan ks
Ġdis g
OM PE
Ġpri v
Ġletter s
BAST IAN
B Y
S ICINIUS
U LIA
c ri
r on
Ġm ount
Ġd ire
Ġha ving
ĠT hy
Ġfor ce
Ġre ady
The ir
Ġab s
Ġra ge
Ġbeg in
AT OR
OLD IER
OMPE Y
G lou
L OR
S PEED
f fect
l er
Ġd ish
ar um
Ġh u
Ġg ot
AN GELO
Ġcha mber
UCH ESS
Ġlords hip
Ġinst ru
IMO GEN
KATH ER
atis f
E TR
H ad
N E
W h
w ill
Ġm al
re r
ha ve
Ġli ving
Ġlo ving
ast ers
ant age
Ġab ove
Ġfl ow
Ġwit ness
Ġspir its
Ġchild ren
und red
Ġdeli ver
ashi on
ETR IUS
H or
M ake
O ne
Ġ ve
re y
Ġb it
er n
Ġf am
Ġd in
en ch
Ġof ten
al s
ra w
ĠE L
Ġan g
AD O
M ust
O P
b r
Ġs ho
Ġs igh
Ġso ft
Ġde eds
ĠJ ul
Ġstri ke
hil st
ĠFR ANCE
G ood
g l
Ġm ortal
Ġl im
ri ar
Ġst ru
Ġst eal
ĠM ac
Ġre b
ĠF ORD
ie u
ort une
ation s
LA UNCE
PRO SPERO
BO Y
B ROKE
C ESS
V IUS
y ing
Ġt it
Ġb a
Ġf ill
Ġf ive
Ġc ase
ar is
Ġe ither
Ġre l
AR ENCE
ast ard
OL ING
Ġwho le
AB ETH
Ġcons cience
Ġchan ce
IZ ABETH
Ġdre ad
FE U
OLING BROKE
c han
Ġm orrow
Ġw ound
it ed
im on
EN S
ĠD id
oth ing
Ġmar riage
LUC IO
UNT ESS
ĠEL IZABETH
g ing
Ġm ist
id d
ĠH am
PA GE
Ġpass ion
Ġres ol
CASS IO
D IO
S c
u nder
Ġs im
in ces
Ġf ing
ar ch
Ġbe ard
Ġbe hind
as y
ra m
ĠM ost
ur s
ES T
ard in
res h
fe re
ANT US
EM ANTUS
Ġbre ast
ign ior
cl aim
Ġche er
Ġsec ond
Ġenem ies
C ELIA
S IL
T ake
m ore
n y
s p
Ġc ross
Ġo p
en ge
Ġis sue
ĠC an
ĠO ur
AL L
Ġwould st
um ph
Ġr an
Ġpo ison
Ġex ec
Ġb le
Ġl ust
Ġo bs
ar l
an cy
et y
le x
Ġe ffect
ĠA re
ver n
Ġsha d
um ent
EM ILIA
Ġch ur
Ġgi ves
Ġtre ason
AG U
C on
L AND
Ġh ost
Ġg ift
id er
ĠM UR
Ġour selves
Ġoff er
per or
Ġmight y
ĠThere fore
BEL INE
YM BELINE
ĠCh rist
ĠHam let
H ot
J ULIA
V ANS
h im
Ġ ut
Ġs hi
Ġh undred
Ġp ost
al b
ĠC ount
ur al
Ġli on
ĠP l
ĠP om
il s
em n
ĠThe se
Ġal ong
Ġaf fection
for ce
Ġsoul s
Ġfort unes
Ġac qu
b ury
o ly
is es
ĠS weet
Ġre vere
ĠP er
ĠR oman
ĠK ate
BER TRAM
Ġhead s
A V
H UM
a ith
n ers
Ġt ale
Ġf ashion
Ġc ru
le ep
ed ing
ĠS ha
ri ght
Ġk ings
ON E
ĠD e
el come
Ġsa fe
Ġpart s
Ġsm all
BA SS
Ġsec ret
PRIN CESS
Ġpret ty
I EL
P OMPEY
f ully
s u
Ġs atisf
Ġb ow
Ġhe alth
se t
ĠT ru
Ġfor get
ĠH arry
Ġno ise
Ġpr ide
Ġwor st
Ġwor ship
Ġwr ite
Ġlong er
Ġpap er
Q u
] .
Ġt ent
Ġm ir
Ġf etch
an ch
ĠT ell
ĠA h
IN A
ĠP ro
Ġv ow
Ġcon qu
au nt
Ġch oose
Ġseem s
eal ous
ARM ADO
AP EMANTUS
e ep
i am
k ind
Ġ er
Ġ ign
Ġm urd
Ġo cc
Ġh urt
st aff
Ġg ates
Ġin v
ĠS OLDIER
ct ed
ag es
Ġbear s
Ġpres ence
Ġbu y
Ġpati ent
BAST ARD
Ġposs ess
CO UNTESS
ĠSEN ATOR
a ves
o ke
Ġt each
Ġd ied
ĠM ay
ĠM ARGARET
ie w
Ġar g
ag o
tw as
SE BASTIAN
Ġaw hile
Ġforg ot
Ġbir th
Ġord er
Ġlad ies
Ġtrou ble
B OLINGBROKE
D UCHESS
F l
u de
Ġa p
Ġd rown
Ġth row
ST ING
hen s
ĠR os
ĠAN T
Ġmar ch
IT ES
LA FEU
led ge
SE Y
Ġbri ef
Ġdanger ous
G od
O ut
S uch
v ia
Ġs n
Ġs or
Ġd ull
ĠT ake
Ġst ud
AN O
AR INE
ĠF al
ru pt
il us
Ġgo d
are nce
Ġpro ceed
ARD IN
Ġlea st
Ġcons ent
Ġremem b
Ed g
Ġexce llent
ĠLu cius
VOL IO
ardin al
STING S
a pp
b ut
b orn
n own
Ġm atch
Ġf ine
ĠI nd
en g
ĠT imon
Ġfor sw
as ion
Ġre ceive
Ġso le
th ough
Ġsu cc
if f
if y
Ġhonour able
Ġla bour
Ġfool s
OST HUM
Ġcur se
Ġval our
Ġprom ise
OSTHUM US
G U
N urse
h is
w or
Ġt or
he ad
Ġy ear
il ity
TH UM
Ġsa f
IS BURY
Ġcomm end
BER LAND
Ġfool ish
Ġvirt uous
ORT ENS
Ġjud ge
Ġjud gment
Ġwis dom
THUM BERLAND
c a
m in
u al
z e
Ġw ed
Ġe mp
ell ow
Th us
IL LO
Be ing
P ol
a x
m on
Ġw on
Ġw ood
ĠS aint
ĠC ap
ea ven
il es
Ġgo ing
ic ul
Ġoff ence
os ition
LY SS
Ġke pt
Ġfault s
DEM ETRIUS
Ġquar rel
LYSS ES
L ORD
O W
S ir
k ing
p her
Ġ ver
Ġh orn
ing ly
ĠT it
ĠS il
ĠO f
Ġkn ock
OL Y
OL SEY
Ġqu al
Ġfl atter
Ġper ceive
com es
Ġdep art
Ġvi ol
I E
u ri
in ion
ll o
Ġf resh
ĠT alb
al es
ĠS ignior
ĠM AR
Ġne igh
um e
pe y
CA M
Ġany thing
Ġshow s
THERS ITES
Ed m
E K
P ro
g in
g ed
p he
t were
Ġw ent
Ġsha r
ĠP age
ĠF l
ho st
Ġv ain
Ġam ong
Ġbl ind
AD R
EC HE
Ġtr oth
Ġent ertain
Ġbit ter
ECHE EK
C K
Y LO
c an
e red
Ġw ast
on our
ar ge
Ġp ains
at ure
ch ief
AN NE
Ġsha ke
ea se
Ġse al
Ġv iew
Ġam b
Ġfear ful
Ġhum our
ĠCl arence
Ġquick ly
ĠEm peror
Ġtit le
Ġcru el
ĠTalb ot
YLO CK
M ar
d ge
e ks
z en
Ġt aken
Ġa y
Ġp i
at o
Ġfor ward
id ed
ĠS ee
ĠM ESSENGER
ĠD es
Ġr ound
Ġj ealous
Ġqu iet
TR ANIO
Ġen c
Ġpra ct
Un less
Ġsum mer
Ġang ry
c il
Ġw id
Ġb astard
Ġf ier
Ġd a
Ġp ain
st ance
Ġe le
am es
ES CAL
ĠG ree
ĠE arl
ĠL ove
Ġno b
Ġan on
ho se
Ġbl ow
Ġpr ot
Ġwh ore
AGU ECHEEK
ORTENS IO
ESCAL US
A IN
C YMBELINE
D oth
E VANS
S ee
T ell
V IR
g are
r or
y b
Ġt akes
Ġm asters
on io
es sed
ay s
ĠS h
Ġher self
ĠF aith
ĠY ea
Ġj ew
Ġoff ic
ID IUS
uck ing
air s
Ġgold en
CL IFF
MAL VOLIO
ĠPom pey
Ġsor ry
M OTH
N ON
P UC
Ġs us
Ġs ort
it ors
ĠI ago
le y
Ġme asure
ill es
ĠT han
ĠG LOUCESTER
Ġpr oof
ĠJ ew
Ġper form
Ġla id
Ġarm y
SERV ANT
ĠCass ius
ĠHel en
Ġdin ner
H ERM
O UCH
T IST
l oy
ou n
re ad
en ger
ve y
Ġin tend
Ġe vil
ĠC or
ĠC har
ĠC ardinal
Ġst ar
ra c
ur st
ST ONE
Ġour s
Ġgra nd
Ġcall s
QU ICK
Ġcou nter
Ġcar ry
Ġgre en
Wh om
ĠFal staff
gare t
OUCH STONE
TIST A
QUICK LY
B et
C OST
E TER
I nto
M ED
b eth
g y
m n
o v
o llow
Ġs land
Ġw hi
Ġf rown
at t
Ġin no
ĠA d
ĠS IR
ĠS uff
ord s
Ġsha pe
ĠF ortune
il ty
Ġcon cl
Ġbl ame
Ġthen ce
ĠTh us
Ġal ive
Ġdou ble
Ġdru m
KATHER INA
COST ARD
MED ES
U L
j oy
Ġt ry
Ġm ut
Ġf led
Ġc red
ra in
ĠO ne
ĠB en
AR IUS
ĠG entle
TH E
un ning
Ġpray ers
Ġbra in
Ġgl ory
Ġfe ed
ph in
Ġtem p
Ġbro ke
Ġign or
F OLK
M ost
d ing
r ate
Ġw ert
Ġd est
Ġst ood
Ġst op
ĠM oor
Ġli bert
US T
Ġde c
ĠL UC
Ġcon ce
Ġsw ift
EL L
Ġpl ague
Ġj oin
IS H
ĠJ ove
IAN O
Ġinst ant
Ġprison er
Ġdel ight
Ġwall s
S ay
e y
Ġm ethinks
Ġw ine
is p
is hed
er c
Ġin j
Ġin s
Ġwe alth
Ġst or
EN ES
ĠP aris
if ul
Ġman ner
AL BOT
Ġsa v
ci ent
Ġhear ing
Ġpur se
Ġfell ows
CL ARENCE
Ġmot ion
Ġsucc ess
N IA
i ans
m ia
Ġs ch
it iz
Ġo bey
Ġp iece
ĠC all
Ġr asc
Ġhad st
DU FF
Ġbeg gar
Ġdra wn
Ġhum ble
Ġmon th
MAR IA
ĠTro ilus
Ġrequ est
gel o
Ġpu bl
BOY ET
Sc ene
ADR IANA
ucking ham
ĠSuff olk
E X
S AND
W OLSEY
k er
m ble
v o
Ġs ix
Ġw ounds
Ġb are
Ġb reat
Ġc ir
Ġth ro
Ġg ross
ch illes
ĠA R
Ġde mand
Ġshe pher
IA CH
Ġhon esty
ERS ET
ick ed
ĠV en
ĠV al
OM ERSET
ĠMar cius
ĠMar garet
Ġcont in
Ġbest ow
Re g
uth or
AT IANO
ĠAnt onio
ĠSt and
Ġstre et
SH YLOCK
ARM IAN
Ġcol our
Ġtrump et
Ġscar ce
Ġsever al
Ġstru ck
ĠMac beth
IACH IMO
S peak
U LYSSES
b roke
i est
s per
Ġf i
Ġc re
Ġc atch
ed y
Ġu r
ter s
Ġli v
IS ANIO
Ġfo lly
ĠCa ptain
Ġtra in
ĠAn gelo
ĠWill iam
Ġbri ght
fere nce
Ġop inion
Ġchur ch
ĠMUR DER
Fl ourish
P OSTHUMUS
g o
Ġt ear
Ġb ot
Ġp ure
Ġhe ld
an e
Ġbe ha
Ġe ld
ĠC om
ĠM ont
Ġas ide
ĠB el
Ġde are
us ion
ĠP o
EL LEN
Ġun f
Ġgreat er
way s
Ġcha st
Be cause
Ġpre cious
CLO TEN
ĠBr it
LU ELLEN
Ġwa it
CON ST
Ġshar p
A r
F riar
L ondon
m bl
Ġa ught
ou nter
Ġb ones
Ġl ist
Ġth ither
Ġp et
ve ll
Ġg ent
ent ine
ĠH ast
Ġre f
ĠB uckingham
OL O
Ġbl essed
ic al
Ġun s
Ġro gue
Ġle g
Ġdes erve
Ġtr ans
Ġwit s
ĠMar k
iss ion
Ġmon st
Ġdef end
J ohn
S O
T OUCHSTONE
V ER
e g
i ol
w oman
Ġ es
Ġm id
or ous
Ġc amp
Ġc unning
Ġl end
ĠO n
ĠR o
ĠJ ack
Ġgreat ness
AD E
Ġboy s
Ġche ek
Ġcond ition
Ġdisp atch
anc aster
Ġwret ched
JA QU
BASS ANIO
ISH OP
F R
I GO
Ġ QUEEN
Ġt aste
Ġw icked
re ed
Ġl oud
Ġbe cause
le ase
Ġme re
id ent
IN C
ĠL ancaster
Ġfa ire
Ġv an
Ġgo vern
au phin
hy s
AC HIL
With out
Ġwhere fore
Ġpri est
ROSAL INE
iz e
ĠHer o
Ġborn e
Ġob edi
Ġexc use
Ġshad ow
ĠRos al
ACHIL LES
B en
L est
M OR
O C
a fe
he art
Ġth ird
Ġme l
ER IUS
ĠH ear
il ia
Ġgood ly
Ġknow ledge
Ġsir rah
UT OLY
PH ANO
Ġfear s
HA STINGS
BER T
Ġcl aim
ID ERIUS
Ġru de
Ġtong ues
ĠBe fore
Ġimp ort
UM IO
Ġgre et
Ġprince ly
Ġforb id
Ġsaf ety
CAM ILLO
itiz ens
UTOLY CUS
L a
N ay
t s
u a
v ail
Ġa uthor
Ġd ies
Ġn urse
Ġp ol
Ġhe els
ce nd
Ġyour selves
ĠH ark
ĠB l
AR ON
ĠL eon
ĠD auphin
ST E
ic ious
Ġpr inces
Ġr ough
Ġqu ite
ust om
Ġra in
per ate
Ġrem ain
Ġend ure
Ġwrong s
ECT OR
Ġvis it
Ġdro p
Ġemb race
NOR THUMBERLAND
Ġcle ar
ron ic
chan ce
ĠInd eed
Ġwid ow
ĠMURDER ER
H ORTENSIO
a fter
c ul
d em
i ance
m ong
r im
s on
w ise
Ġ ir
Ġb en
or a
es y
es ter
Ġl arge
Ġp un
Ġbe nd
Ġme m
ĠC on
Ġan cient
Ġfa il
Ġman ners
Ġdis m
Ġwr ath
Ġcomp l
Re ads
Ġsm ile
Ġhold s
Ġche eks
Ġdru nk
Ġfore st
Ġpriv ate
ĠANT ON
Ġshepher d
hys ic
A b
P l
c us
p ro
Ġm our
or ge
Ġf ru
Ġf ig
Ġd ue
Ġc orn
Ġo we
Ġh or
ut ation
Ġe qu
ĠA chilles
Ġwe ap
Ġwe ary
ĠS om
ĠS ome
ra ct
Ġde g
Ġde bt
ard ol
ĠJ UST
Ġfo es
Ġim m
ĠSt ay
Ġadv antage
LEN DER
ĠChrist ian
anch oly
ardol ph
C ap
D es
F LUELLEN
M er
P TISTA
U nder
U LIN
e at
Ġs ong
Ġm ajesty
Ġb ount
er set
Ġl est
Ġme nd
ed ick
Ġfor mer
Ġre vol
Ġde al
AR LES
Ġsp end
Ġwas h
Ġshould st
Ġex pect
EM IO
ac le
BA PTISTA
COM INIUS
MAR CUS
Ġgrow s
GR ATIANO
Ġter ms
ARDIN AL
Ġlibert y
ULIN A
' -
U nto
W ell
X ENES
i ch
o es
Ġb row
Ġd well
Ġc e
Ġth reat
Ġth rice
Ġhe at
an io
an ces
ir gin
ĠW elcome
id ge
ĠC am
Ġst ain
ĠB ol
and er
ĠD ost
Ġne ck
Ġne cess
TH UR
Ġcon j
Ġus ur
EM NON
Ġlea ves
Ġdes ires
ĠPr ithee
ock s
Ġbrother s
AM EMNON
ĠAt tend
OLI XENES
Ġste el
cha nt
Ġmal ice
ĠSom erset
e x
o ot
p os
t here
Ġf ie
Ġf aint
Ġo w
Ġth ief
ar ing
Ġp in
Ġp ot
ing broke
Ġr ans
Ġmad ness
Ġab ro
Ġle is
Ġle gs
Ġcomm it
Ġhonour s
AB IAN
Ġcont r
Ġgl ass
Ġfall s
Ġtri b
UM NIA
St and
Ġthr one
PROV OST
Ġpers u
Ġwant on
Ġoath s
Ġcho ice
Ġemp loy
ĠJUST ICE
ĠBol ingbroke
A UTOLYCUS
B oth
C ADE
f l
u g
or al
Ġf ew
Ġd ance
Ġh unt
Ġg a
ĠT ower
ĠA p
Ġst ory
Ġst ars
ĠM ess
th is
if ied
Ġsp ent
ard s
Ġbl ows
EL LE
Ġro om
IAN CA
Ġra re
QU IN
Ġapp are
ors es
Ġkeep s
Ġsword s
Al arum
An other
Ġwin ter
HOST ESS
JA X
Ġkne el
Ġcreat ure
Ġty rant
Ġmurd er
Ġarg ument
yb alt
A h
F ool
R ome
i ent
s hall
Ġa id
Ġs li
Ġw ond
Ġw ag
Ġf ame
Ġn ay
Ġp hysic
Ġg ir
Ġme at
our se
ĠW as
ĠW hich
ĠS al
Ġst uff
ĠF ie
if ford
Ġv ows
Ġsh ore
Ġsa il
IL LE
Ġcha in
Ġro b
Ġbet ray
Ġear n
Ġper fect
CH ARMIAN
Ġway s
Ġgu ilty
ĠLORD S
Ġmaid en
GR UMIO
Ġaff airs
Ġappro ach
Ġocc asion
Ġsole mn
ĠDes dem
Ġpubl ic
ĠVal entine
STE PHANO
E re
d er
e ous
i ver
o g
v ish
y s
Ġs ens
is ing
Ġf ond
Ġf ought
Ġd ry
Ġl am
Ġo d
Ġth under
Ġhe ed
Ġg ain
Ġme d
Ġst o
Ġno se
ĠF ord
Ġkn ee
Ġv ent
ĠK ATH
Ġr ise
Ġmay st
Ġpro per
Ġro se
Ġdes ert
ward s
Ġcour age
Ġrep ent
Ġsm ell
LUC ENTIO
ĠAn ne
Ġreason s
Ġass ur
ĠCl ifford
Ġund ert
Ġid le
Ġsim ple
IE F
Ġmonst rous
Ġleis ure
B ARDOLPH
c um
f er
h ouse
n a
u ce
Ġ ed
Ġb as
Ġb aw
es ides
Ġc ost
ve d
Ġe asy
Ġwe ight
ri ft
ĠE gy
Ġlo ver
Ġsp ring
ĠN othing
qu e
ĠK ent
Ġpro claim
Ġen joy
Ġfo e
Ġwhere in
Ġpart icul
Ġfollow s
ĠMAC BETH
ĠNor th
oint ed
Ġtrump ets
Ġut ter
Ġabro ad
ĠEgy pt
' ;
A fter
D e
F are
M ade
P O
U BERT
j ax
m ed
t hi
w ould
w here
Ġc ure
Ġme ant
Ġe v
ĠS p
Ġst one
ĠO ut
ĠH eaven
EN CH
Ġdo om
ĠE ven
OR A
th ou
ĠF rom
ĠN ever
Ġam az
LO T
ĠK now
Ġun less
Ġcha ll
Ġim ag
ang u
Ġsm o
AM ORA
Ġmon ster
Ġsil ver
Ġhu ng
ĠJul iet
DIO MEDES
Ġfing er
Ġforsw orn
Ġprot est
SAND ER
Ġfi end
La er
Ġrans om
ĠDesdem ona
C orn
D is
D ELLO
F LA
k in
ou ds
Ġs hip
Ġm ur
Ġb ig
Ġf le
Ġf ury
Ġc ried
Ġp ort
Ġp aid
Ġwe igh
Ġst ol
ĠB ass
Ġk ins
ĠL ondon
pp y
um p
ak ed
IB AN
Ġhon or
Ġfri ar
ag ger
ION DELLO
Ġad ieu
PA ULINA
Ġcourt esy
SAL ISBURY
AG US
ĠEd m
Ġaw ake
Ġsil ence
Ġvi ct
umber land
Ġran k
Ġexec ution
ĠPer cy
GU IDERIUS
Ġneigh bour
VIR AGUS
ĠBen edick
JAQU ES
Ġmel ancholy
C IUS
F ER
F IDIUS
N ES
W ILLIAM
a ces
a ult
d ain
f all
Ġ Upon
Ġ Qu
Ġt able
Ġt une
Ġs qu
Ġs au
in cess
Ġf ood
Ġf ee
it ude
Ġd ust
Ġd ign
Ġl ine
Ġto mb
om ach
Ġg ate
ĠT ime
ĠC A
Ġst art
ĠB ARDOLPH
IN US
Ġdo ors
AR L
ĠP y
ĠG e
ĠG re
Ġse ven
Ġan ger
ru m
Ġsp ite
ĠY ORK
RO DER
all ow
Ġr ot
IR AND
Ġqu oth
Ġab use
Ġhea v
Ġtw ice
UR N
Ġad m
Ġwit ch
Ġcomp an
Ġbeg g
AT URN
Ġass ure
ĠAt hens
Ġsupp er
Ġbro ken
MAC DUFF
ĠAr t
Ġcor rupt
Ġwret ch
NOR FOLK
Ġdu c
Ġconqu er
Ġstud y
Ġrememb rance
Ġbreat he
OLO FER
RODER IGO
IRAND A
OLOFER NES
A JAX
B r
C ould
S C
T ALBOT
Z AL
i ence
i vers
n ed
o c
y ond
Ġb and
is ho
or ious
Ġl ed
Ġl ament
en ance
Ġon es
ĠB ardolph
ON ZAL
Ġse at
Ġv irgin
el ve
Ġpl ot
ĠTh ough
Ġfl ood
PH ERD
the llo
Where in
Ġcons ider
HE PHERD
Ġtri al
Ġlaw ful
Ġmis er
GR EMIO
Ġcond emn
BEL ARIUS
cent io
Ġem pt
Ġdread ful
Ġsch ool
ĠEdm und
ATURN INUS
ONZAL O
- -
A ARON
O ph
P ISANIO
P OLIXENES
W hile
Ġt ail
Ġf ain
Ġf un
Ġf eet
Ġc at
Ġc ustom
Ġy onder
Ġn iece
en c
en et
Ġh it
Ġto p
Ġha p
Ġdo ing
Ġse ason
Ġlo ath
ĠD ou
ind s
ĠR om
Ġr id
Ġun ha
Ġthink s
Ġwhere of
ction s
Ġrem edy
Ġnat ural
Ġgu ilt
Do g
ouch s
Al b
Ġsing le
Ġtem pt
Ġca ptain
Ġsk ill
Ġmin ister
VOL UMNIA
Ġsubject s
Tw as
ote us
Ġtoward s
Ġprep ar
SIL VIA
H ECTOR
S LENDER
T OM
W IS
Z O
g ood
k ed
r at
w ixt
Ġm urther
Ġw ide
Ġw ench
Ġw hilst
Ġb urd
Ġc itizens
ot ect
ĠT H
ĠT ybalt
ĠW h
ĠW ilt
id ius
ter n
ĠC L
Ġst ones
ĠH ad
Ġre ign
EN ZO
Ġas leep
ĠB A
Ġde ce
ĠG et
ĠG reat
ĠF air
ie ur
Ġcon c
Ġwhen ce
Ġwar like
ENE AS
Ġcl ouds
Ġru in
Ġforg ive
Ġposs ible
Ġexp ress
Ġmess enger
Ġjew el
ĠCor iol
Ġmem ory
Ġfru it
D OL
E US
H OLOFERNES
L ord
M AIN
R ICHARD
b ear
e re
i ving
l ove
s he
t om
Ġa ble
Ġa ud
Ġb uck
Ġf art
Ġf irm
Ġf ancy
on ius
Ġd et
Ġd eter
Ġy ea
en ant
Ġth rive
Ġh orses
at ors
at rice
Ġe ase
ĠW ARWICK
al f
ĠS e
ĠC ast
Ġst ep
ĠO thello
ĠM ort
ES EUS
ĠP HIL
ĠG u
Ġall ow
Ġcom b
EL AND
ff ic
eet h
ĠV I
ĠV ol
CA IUS
Ġwar m
Ġbear ing
CH IEF
DU MAIN
Ġsl ow
Ġpur pos
ac her
Ġcrown s
ĠWhere fore
IZ EL
Ġsomet ime
Ġcond u
Ġsoon er
Ġcol ours
Ġgall ant
ĠSc ot
Ġpow ers
Ġprep are
LOR IZEL
EST MOR
ĠSil via
Ġcounter feit
Ġrasc al
Ġcir cum
Ġdeare st
ESTMOR ELAND
B l
G on
R os
W or
a ld
a wn
in ius
Ġw ont
Ġd if
en ces
Ġh ol
Ġg rown
ĠA jax
as ide
ĠS en
ĠS erv
ra id
Ġre ceiv
ur g
ĠP ol
Ġan gel
ct ure
Ġv enge
Ġsh ut
el ess
Ġout ward
Ġsa c
Ġal ways
Ġtw elve
Ġfl ight
ENE T
Ġper il
Ġaf fect
CH ARLES
aint ain
Ġmind s
Ġcount enance
ont ent
Ġgrief s
Ġweep ing
up id
KATH ARINE
Ġprof ess
Ġgrie v
Ġenc ounter
Ġsland er
ĠLeon ato
Ġpun ish
Ġparticul ar
Fare well
A y
C a
M ine
T hose
U G
a f
h or
i b
n at
o pe
w it
Ġt eeth
in y
Ġm ain
Ġw ives
Ġn ought
Ġn umb
Ġn aked
om p
om as
Ġg ard
ut enant
ĠW or
Ġst omach
ĠH old
Ġlo vers
il ing
ct ly
ic y
Ġho pes
ire d
Ġcl o
Ġheaven ly
ĠPr oteus
LA IN
Ġwom b
ET TA
Ġgu est
Ġtri umph
Ġtre asure
AG AMEMNON
Ġprom is
Ġvo ices
Ġwhe ther
Ġext rem
Ġabs ence
Ġrevere nd
Ġqual ity
uri ous
ĠRosal ind
Ġusur p
ĠNorth umberland
? '
? -
A d
B ISHOP
C all
E n
G ONZALO
H ear
H UBERT
P ut
W hilst
i ar
i vil
o ll
v ious
in ation
Ġw ings
re ck
Ġb ab
Ġc uck
Ġn ine
Ġn umber
Ġth rust
Ġp at
Ġg own
le nd
im er
as es
ri a
ri us
Ġre alm
ro y
Ġlo yal
ĠF irst
ĠD on
Ġshe ep
Ġlove ly
Ġbr ide
Ġun l
Ġun kind
Ġho llow
Ġpro sper
Ġen g
IL IUS
ci an
Ġfri ght
Ġdes perate
ress id
CA S
BER LAIN
ove d
ĠSir rah
ĠMar s
Ġchi ef
Ġtra itors
Ġacc ount
Ġdisc ourse
Ġbu ried
Ġhapp iness
Ġbo ot
tw ixt
HAM BERLAIN
Ġint ent
CAL IBAN
ĠTit us
ĠAttend ants
isho p
otect or
ĠCast le
F ABIAN
H old
M ONT
M IRANDA
S ATURNINUS
T IUS
c is
s hi
u ng
Ġ ing
Ġt id
Ġt ree
Ġb orrow
Ġc her
Ġp age
Ġme lt
ri ble
ĠM il
hi les
ĠL a
th ink
Ġno bl
Ġfa ces
Ġkn ife
Ġsh rew
Ġgood ness
Th ink
Ġun c
ĠTh omas
Ġsa ck
Ġex am
ĠV ery
ert es
Ġpre vail
Ġgu ess
Ġco ver
Ġtri ck
Ġkind ness
Ġchar ity
Ġmean ing
Ġbid s
Ġhum bly
Ġland s
pen se
Ġden ied
Ġcast le
Ġdro ps
Ġdish onour
CLIFF ORD
Ġbaw d
Ġduc ats
ouchs afe
L ove
N ever
R A
S p
T AMORA
e ad
r ont
Ġ z
Ġ et
Ġa im
Ġm iss
Ġm ild
Ġw ol
Ġw aste
re p
Ġb ark
er ves
it er
Ġd ar
Ġd ig
Ġc ivil
Ġl oose
Ġl angu
Ġth ick
Ġh id
Ġbe ll
im ent
ĠC y
ri b
RO SS
Ġbl ush
el t
od y
Ġr ide
Ġpro d
Ġen vy
Ġro ot
Ġfl ies
Ġbre ed
Ġple ad
LY SANDER
Ġcomp ass
the y
Ġbeg ins
MER LE
ian ca
Ġdaughter s
ĠBe atrice
Ġtre acher
Ġseem ing
ute ous
Ġspo ken
Ġsick ness
Her o
Ġob ject
BOT TOM
Ġkne es
Ġconst ant
Ġdisg u
umph rey
Ġstor m
ĠMont ague
Ġauthor ity
Ġben ef
Ġgir l
ĠRom ans
Ġtid ings
C or
F IC
N ER
O sw
b us
g an
o b
s ing
u ed
w s
Ġa pt
Ġs al
Ġm aking
re g
is bury
Ġc ries
Ġp ound
Ġp ress
Ġp ainted
Ġbe comes
ed ious
ad es
ra nd
Ġso l
AR IEL
ĠP ardon
Ġher s
Ġsp e
LE WIS
pp ing
od er
ig o
ig ence
Ġbr ings
Ġj oint
Ġun b
Ġun p
Ġdis ple
pt ion
ĠAnd ronic
Ġle an
IT CH
Ġpart y
Ġper j
ĠMar cus
ne y
Ġmer it
LUC ETTA
Ġacc us
Ġfree ly
Ġcra ck
Ġund one
Ġlearn ed
ask et
Ġdesp air
Ġty ran
Ġacqu aint
Ġmir th
ĠChar les
Ġinno cent
Ġcred it
ĠHast ings
ĠPHIL IP
O V
P er
P ID
S OMERSET
d o
d raw
f ather
k now
s c
s oe
t on
Ġt ort
Ġt ide
Ġt edious
Ġa nt
Ġs alt
Ġw at
is ion
Ġh ill
Ġh oney
Ġp ick
Ġg az
Ġg host
at ing
Ġin vent
Ġha z
Ġha bit
et rius
Ġu ng
ĠW ITCH
ĠC ressid
Ġst ab
ĠM en
ĠM al
ĠM ore
ĠB ianca
ain e
ES BY
ĠP et
ĠL au
ĠD em
ct av
TH ESEUS
Ġbl est
Ġsw ore
Ġqu it
Ġgreat est
Ġdead ly
Ġserv ants
ĠDo ctor
Ġbel ow
Ġstre ets
Ġdiv ine
Ġprop he
vol io
Ġforb ear
EST OR
AV ILLE
ĠTru e
Ġhorn s
Ġoffic er
Ġearn est
ĠGe orge
Ġempt y
C OL
G A
S ings
U DIO
a ul
b ed
c o
f olk
h um
k nown
u c
v i
v al
w hat
Ġ .
Ġ 1
Ġ eter
Ġt on
ou nce
in a
Ġm il
ha ps
Ġb ought
Ġn ames
Ġp ack
at io
Ġe ag
ĠW est
ĠC upid
ĠH umphrey
ĠM ake
ver se
ĠB an
am s
ON SO
ea ve
ru n
ĠN e
em ent
Ġsay ing
ĠOF FIC
Ġen force
urn ish
Ġgentle woman
Ġcomm ission
Ġcl ot
ĠPr otector
Ġapp ears
Ġpre vent
Ġim per
LA UDIO
Ġcont empt
Ġsl aughter
for th
ĠCa ius
eth ought
Ġvirt ues
Ġwind s
ISS A
ran cis
Ġtem per
Ġca pt
Ġest ate
Ġest eem
Ġgar ments
Ġopp os
Ġmod esty
Ġreg ard
LOR ENZO
Ġsigh s
Ġsatisf ied
FLA VIUS
Ġburd en
Ġgard en
A way
E ng
F LORIZEL
L ady
P o
S AY
b ar
ou red
Ġs its
in ing
Ġm aintain
Ġw ake
er ving
ut es
ĠA b
ĠA g
our t
ĠO ctav
ĠH or
IN CH
ea re
ĠL A
OR S
Ġlo d
Ġv ice
ant ag
Ġcon vey
oth s
Ġlove d
Ġthere in
ist ol
My self
les ome
Ġru le
ĠIt al
Ġbra ins
cl ock
Ġturn s
Ġpri ck
Ġpri ze
Ġmo v
Ġbes ides
ĠAl b
CL US
Ġbir d
Ġdesp ite
Ġsudden ly
Ġdisg race
Ġlim bs
Ġviol ent
Ġfier y
PUC ELLE
Ġsus pect
HERM IA
Ġtemp est
Ġignor ant
EX ETER
Ġthro at
ĠVen ice
Ġobedi ence
QUIN CE
ĠMort imer
oder igo
A nt
B IANCA
C IB
D IANA
G ent
K now
S HEPHERD
U LO
a ction
n et
s ome
he st
Ġw ing
re es
Ġc up
Ġp il
ĠT R
Ġfor feit
ĠA men
ĠS AL
ĠC LO
ĠH ence
AR VIRAGUS
ĠP ri
Ġlo ck
Ġsp are
ĠD i
ĠN OR
Ġv ar
Ġv ill
Ġne g
em ber
Ġshe d
Ġsw ell
ic ate
IA DES
Ġbr ook
Ġdis dain
Ġcha ir
Ġfl ower
Ġapp re
Ġstr ang
Ġtri f
ati ence
St ri
IP PA
Ġwind ow
Ġmis chief
Ġbu ild
pl ace
Ġattend ants
ĠHer mia
ĠNor folk
TA IN
AU FIDIUS
ĠSal isbury
Ġundert ake
Ġvict ory
Ġcondu ct
Ġsac red
ĠAndronic us
Ġeter n
CIB IADES
A ENEAS
B E
L o
S IM
S weet
V er
Y ea
c ol
f ac
m ine
o gue
p ass
u il
Ġt aught
Ġs our
Ġs ides
Ġb rows
Ġf ro
Ġf ix
Ġd umb
Ġc am
Ġl eng
ar m
Ġp ie
Ġin cl
ill o
Ġe as
id ence
al ks
ra ld
ord ing
Ġre ck
Ġre nown
ur ing
IN AND
ĠP lease
il iar
Ġsp ake
ST ARD
qu o
ul et
Ġsw ay
Ġr hy
IR ON
Ġal as
ci al
Ġfl ourish
Ġdes erv
Ġear ly
ION E
ISTR ESS
CH BISHOP
Ġsl ight
Ġend s
Ġfollow ing
Ġfollow ers
AT CH
Ġch ide
Ġchar m
Ġdisc har
Ġsound s
Ġsomet imes
so oth
Ġfra me
ERD INAND
Ġflow ers
LAUNCE LOT
ram us
ĠSha llow
ĠTru ly
Ġamb ition
Ġpol icy
Ġcontr ary
Ġchall enge
Ġsmo oth
Ġkins man
ĠDem etrius
Ġton ight
M ight
M akes
R em
T urn
d is
f ri
l ot
o on
p ic
r ough
w ear
Ġ 2
Ġ Un
Ġt ap
Ġa vo
in ite
re nt
re ak
Ġb ud
Ġf ish
Ġd urst
Ġh ig
Ġin fect
ĠW ales
ad ed
Ġst ore
Ġso re
Ġli est
ĠB er
ĠB urg
Ġsha m
ĠP RIN
ĠL ear
ru ction
Ġshall ow
Ġsh ot
LE Y
ĠR oderigo
Ġsw eat
old iers
Ġcl im
ID OW
Ġpur cha
LUC IANA
ail s
Ġmeet ing
und y
av in
Ġprison ers
Ġdream s
Ġprof it
Ġgro an
Ġve x
wor thy
ĠCap it
Ġda res
Ġce rem
Ġvenge ance
ĠBurg undy
E ither
H a
N e
U nt
W hiles
a ct
m end
n ock
p ir
u pon
Ġ EN
he ther
Ġs y
Ġb ill
Ġf ant
Ġd ying
Ġd agger
Ġc ool
Ġc ock
Ġc ease
Ġp ear
om in
om ed
ĠW ATCH
ĠS H
ĠS uch
ER IO
ĠC al
ĠM an
Ġre nder
ĠG on
Ġse as
Ġse est
Ġsu ck
ru e
ast ing
Ġsh ine
all s
Ġr ash
Ġro ck
Ġcl oud
Ġper force
Ġim age
Ġcomp lex
Ġarm our
Ġhar k
Ġsm iles
mp et
ĠWe re
Ġnat ive
Ġtre ad
Ġbod ies
Ġdisp osition
Ġshort ly
Ġburn ing
Ġdamn ed
Ġgift s
ĠPl antag
Ġpi cture
Bet ween
Ġbeha lf
Ġir on
ĠANTON Y
Ġequ al
Ġod ds
ĠKATH ARINE
Ġed ge
Ġmur de
ĠPy ramus
PID US
ĠHor atio
ĠCapit ol
' ?
D Y
L ONG
S ave
W ELL
a pe
f ellow
r id
t hen
w hich
he nd
Ġm ag
Ġw oes
Ġc row
Ġc ens
Ġhe rald
an ct
Ġbe lly
Ġbe yond
Ġin form
se mble
Ġfor ces
ĠA m
ĠW atch
Ġwe eds
ER O
ĠH al
ĠH ath
ĠM erc
ĠB ring
Ġdo gs
ĠL y
Ġse ll
th ur
AL ONSO
ie ge
res ent
Ġpr on
ĠTh ink
Ġad mit
Ġra ise
Ġapp et
Ġpre y
Ġpur su
Ġconf irm
Ġimp oss
Ġadv ice
Ġsorrow s
Ġcra ve
Ġsk y
Ġbeat en
Ġdev ise
Ġatt empt
Ġoffend ed
Ġap art
Ġeld er
Ġmour n
Ġdeg ree
Ġfart her
ĠSen ate
ĠLa ertes
LONG AVILLE
A pp
A cc
B el
B IONDELLO
E PER
K eep
N ESTOR
S ha
S omet
l ook
m aster
w d
z z
Ġs at
is per
Ġf il
Ġf if
Ġd er
Ġc ell
Ġth ie
Ġp air
at or
se qu
le ct
ut ed
Ġis land
ĠT w
ad ua
Ġst ick
Ġst ock
ro ll
ro ach
Ġde ceive
ĠL E
ĠL ADY
Ġse arch
ol ute
TR INC
Ġal ike
ass ad
Ġfather s
li p
Ġfair ly
Ġpre fer
Ġaf raid
Ġstr anger
Ġgl orious
bl ing
Ġdear ly
sand er
Ġsleep ing
Al as
MAR CIUS
tw ill
Ġaff li
Ġwa x
Ġinf inite
Ġdev ice
Can not
Ġunt il
Ġfat al
gl as
Ġobs erv
Ġrevere nce
Ġpract ice
ĠGree k
Ġfig ure
ĠDou glas
nat ural
Ġnumb ers
Ġhaz ard
COL M
Po ins
avin ia
ĠPlantag enet
TRINC ULO
C ARDINAL
C HAMBERLAIN
G reat
M e
R et
W ESTMORELAND
c ame
e ld
g u
m ond
w as
Ġm art
ha nd
Ġf its
on est
Ġp ill
an us
om en
Ġfor sooth
ĠW els
ĠC le
ĠH ang
ĠM ine
Ġde ceiv
ĠP oor
ĠP eter
Ġse es
ĠF ollow
Ġkn aves
Ġv en
AL CIBIADES
sel ess
LE ANS
Ġwor thi
Ġhere after
ED WARD
un ate
Ġspeak ing
ose d
Ġab us
ĠV er
Ġtell s
Ġro ar
Ġpart ed
Ġser p
Ġfair y
Ġlady ship
Ġmer chant
Ġput s
ons ieur
ĠHere ford
Ġconf ound
Ġsub stance
ĠAl ack
Ġdisc over
Ġvillain s
Ġmaid s
Ġattend ing
Ġattend ed
Ġcountry men
AU MERLE
Ġbar ren
Ġac cept
Ġbless ing
TEN D
MAL COLM
Ġpriv ile
Ġfing ers
CONST ABLE
Ġmid night
Ġfaire st
Ġweap ons
Ġbount y
Ġrevol t
ĠBass anio
ĠVol s
Ġpurpos es
Ġspe cial
ĠDi omed
ĠWels h
C LAUDIO
G UN
I V
M ethinks
O Y
R ep
T oo
W ER
a cy
b oy
c ure
d es
l ock
p ort
p eare
r ite
u f
Ġt all
Ġt arry
Ġs now
Ġs cept
Ġm om
Ġw ants
Ġd im
Ġc ave
Ġc alm
Ġo dd
et ter
oo ps
ĠC LEOPATRA
Ġso oth
ĠB o
ĠB ar
ro s
Ġde w
ĠP istol
ge ls
Ġsh r
Ġne phe
TH ER
out s
el iver
ig ious
Ġun known
Ġhand ker
Ġthink ing
ust ice
Ġbre d
IT A
PH IN
Ġri pe
ĠPr incess
Ġrep utation
Ġsent ence
OLI VER
kes peare
ĠLu centio
Ġhate ful
AU PHIN
pr ise
Ġmod est
Ġmount ain
Ġfam iliar
ĠSha kespeare
ĠThan ks
Ġconce it
Ġbot tom
Ġchast e
ĠCam illo
CAS CA
ĠBan quo
INCH ESTER
Ġleng th
ĠEN D
TEND ANT
E ach
O X
P oor
S UR
a pt
a vy
b ow
c ap
j o
l aw
m ark
m aid
o ff
p ing
p ur
t a
w h
Ġt ame
Ġs aint
Ġs anct
Ġm ass
Ġw ink
Ġb ind
Ġb ite
Ġb ade
it able
Ġd ri
Ġd ress
Ġn ice
en cy
Ġp our
Ġp ier
an k
Ġin her
ch io
ĠA T
ĠA lex
Ġst at
ĠB UCKINGHAM
Ġde er
ĠE mp
Ġsu per
ĠF riar
ĠF rancis
ru chio
ĠN one
Ġv antage
han ge
ED FORD
Ġj our
Ġun w
un s
Ġpo ck
Ġal ter
Ġbet wixt
Ġwr ought
Ġwh isper
the m
Ġfind s
PA TRO
Ġrep air
bl ood
Ġsle w
Ġcourt ier
BR AY
Ġacc use
Ġmon ument
Ġbo ast
Ġcra ft
On ly
Ġmark et
Ġmin ute
Ġgrie ve
Ġinstru ment
more land
Ġaffection s
eng ers
OW BRAY
Ġfier ce
HERM IONE
ĠBrit ain
FR ENCH
ich mond
Ġadm ir
inds or
Ġcuck old
Ġappet ite
uf idius
Ġmom ent
PATRO CLUS
B ora
N YM
l ight
o ard
t ell
t ime
Ġ 3
Ġs ings
Ġm ood
Ġb ent
Ġf in
Ġf ate
Ġd ot
Ġd ow
Ġl uck
Ġbe fall
Ġin k
Ġis le
ĠT ur
ĠT ITUS
Ġe ight
ĠA ufidius
ad o
her s
ĠS at
ri v
Ġst age
Ġst aff
Ġst roke
ĠM ISTRESS
Ġk in
IN TER
AN LEY
ĠP is
ĠP hi
ĠP AR
est ed
ĠN ature
IC A
el ia
Ġwor m
Ġar rest
ĠK ather
are nt
Ġpl ant
Ġun se
Ġal so
Ġfo x
Ġab hor
Ġtw ain
ESS ICA
Ġgra ces
ress ion
Ġtr ade
BER ON
Ġwh ither
Ġpray er
the e
Ġevery thing
Ġfriends hip
ret ch
Ġco z
Ġpe ers
Ġret ire
Ġvillain y
Ġmis ery
Ġban qu
Ġadv ance
Al though
Ġfav ours
sh ould
ĠEm ilia
Ġpit ch
Ġsho ot
Ġba be
Ġshi ft
Ġnob les
Ġmonth s
CONST ANCE
heart ed
Ġlam b
Ġrot ten
Ġbenef it
NER ISSA
ĠWest moreland
Ġcomplex ion
ERO S
ĠLy sander
ĠAT TENDANT
ĠEmp ress
A m
A US
B esides
S u
b ours
d ed
f old
i pe
l ong
l eness
p et
r ison
u x
w ife
Ġt ask
Ġs ins
Ġw ither
Ġw reck
Ġb ury
Ġf ront
Ġf urnish
Ġy ester
en se
Ġh ind
st r
at ra
ir ty
Ġwe ars
ĠC OR
Ġre de
ur b
ĠB ra
am our
Ġde b
Ġwill ing
ĠP UC
ĠG U
ĠL avinia
Ġsp ur
ĠD en
ĠD oth
Ġv es
Ġv ol
Ġv ouchsafe
rom io
ast ed
Ġam iss
Ġmu lt
Ġbl unt
Ġsw allow
Ġsee ing
Ġpl aces
Ġun natural
Ġheart ily
Ġen vious
Ġfl att
Ġcl er
Ġnight s
LA W
ĠTo by
Ġcons ul
Ġres c
Ġbel ong
Ġchan g
Ġmo e
St ill
ĠBr other
ĠBr ook
Ġsleep s
Ġlaw s
Ġbea uteous
Ġdevil s
Ġgre y
Ġsend s
MEN AS
Ġhard ly
op atra
Ġca res
Ġexce pt
Ġsil ent
ĠAr thur
Ġint ell
Ġdel ay
Ġmouth s
edi ate
Tw o
Ġgro ans
Ġdark ness
Ġhu ge
Ġwound ed
Ġacqu ainted
ĠDe ath
Ġtor ment
ĠGentle men
Ġignor ance
Ġunf old
ĠRo bert
OC TA
THUR IO
Ġconj ure
Ġdign ity
ĠWh ither
Ġdif ference
Ġtort ure
ĠPet ruchio
Ġetern al
Ġavo id
B ring
F rance
G ILIA
H ast
I OR
L ANT
N IER
T IT
p ier
r oth
s er
w ar
Ġt est
he ld
Ġs and
Ġs ought
Ġb ull
Ġy ond
ar us
Ġp omp
om s
st ant
ut ies
ĠH ail
ĠM EN
Ġre com
Ġso ci
Ġli p
Ġde cl
ĠG REY
ĠL ie
Ġan gels
Ġsu p
ous ly
Ġthere of
Ġdis s
Ġsa cri
Ġal though
Ġcha se
Ġfriend ly
Ġmar ks
li ed
tle d
Ġra il
Ġra ven
ne w
ĠSo ft
Ġfollow ed
AT CLIFF
Ġco ff
Ġfe ather
Ġpass age
Ġche ck
Ġass ist
AG ENET
IG NIER
Ġcommand ed
Ġstrong er
Ġrun s
Ġdru ms
Ġdef ence
ham ber
gg ed
Ġcommon we
Ġpleas ant
Ġpleas ures
Ġbanish ment
ĠSEN IOR
idd le
Ġble ed
cul es
Ġappare l
Ġshrew d
Ġclot hes
Eng land
ĠSAL ISBURY
Ġpie ces
Ġimposs ible
GUN DY
Ġbanqu et
Ġrede em
Ġves sel
LANT AGENET
A E
B AN
B ear
C ame
D raw
D OV
F irst
F ERDINAND
G ives
M ess
M OND
M usic
S ound
a cc
u ries
he mia
Ġs ink
Ġs tern
in ed
Ġw est
Ġf elt
Ġn aught
Ġp ause
ot ion
Ġhe ight
ing er
Ġbe w
Ġha unt
Ġfor s
ĠS UFFOLK
ĠC orn
Ġst oop
ĠO L
Ġre nd
ĠB oy
IN IA
ĠP ost
Ġno bly
ge on
Ġbut cher
ĠF ALSTAFF
ĠD romio
ĠN ap
ous es
ĠY O
LE PIDUS
ven ge
ĠR ichmond
IC O
ep t
Ġwor n
UT LAW
Ġpo et
Ġro bb
Ġmar vel
Ġart ic
Ġsc ene
Ġper ish
QU O
ĠMar ch
Ġsl aves
ĠThis by
Ġgl ove
Ġlie utenant
Ġsle pt
OTH SAY
ret ion
Ġstay s
Ġkind ly
Ġafter wards
ICH MOND
Ġsec ure
ran io
up iter
Sh ow
ub ert
Cl own
Ġrec ord
Ġinc re
Ġvis age
bit ious
Ġbook s
Ġcreat ures
ĠHel p
KATHER INE
ern s
Ġmist ake
Con f
Ġnob ility
ĠBel ieve
mbl ing
reed om
Ġfaire r
Ġcommit ted
Ġsens es
PO ET
Ġcompan ion
ĠCoriol anus
ĠScot land
Ġclo ak
Ġwol f
Ġlangu age
Ġdisple asure
Ġacquaint ance
Ġmil k
ĠPri am
ĠPRIN CE
Ġnephe w
Ġhandker chief
BAN QUO
DOV ICO
OTHSAY ER
G ENTLE
c ing
e rest
f oot
g ive
l ive
m m
p it
p ul
r is
r oop
t han
w all
Ġt ou
Ġm ill
Ġm ask
er il
Ġc and
Ġl ines
ar ried
Ġh ur
Ġp aint
Ġp awn
Ġha il
le ans
ay ing
ill on
ĠT om
Ġwe ather
Ġst amp
ĠO ffic
ĠH ubert
Ġre ward
ĠB id
ĠB ER
IN S
ro g
ro p
AR TIUS
ĠP ort
ĠF ear
ĠD ian
ie v
Ġbl own
Th rough
Ġal arum
ist a
Ġab ide
to gether
Ġlea gue
Ġdes ign
Ġdes cend
Ġser ves
CA T
Ġsc ape
Ġcl ock
ĠLord s
CH ANT
aint y
Ġhar sh
GO WER
Ġpass ing
Ġcur s
Ġgi ld
Ġtre mble
Ġfaith ful
Ġhum an
Ġfalse hood
Ġmon arch
Ġhang s
ĠHer cules
BO W
Ġbir ds
Ġpar ley
Ġwrit ten
Ġbrave ly
Ġrec over
asc a
Ġmove d
Ġbeast s
ĠTroy an
br idge
Ġreb ell
ĠCap ulet
PUC K
Ġsav age
Ġcre ep
ĠGre cian
Ġtail or
Ġunha ppy
Ġcircum stance
Ġz eal
Ġtyran ny
vi our
ĠItal y
ĠCLO WN
Ġthie ves
ĠCle opatra
apt ista
Ġsacri f
ĠNap les
D R
D AUPHIN
H eaven
S et
b ble
c hard
e ve
j ust
w er
Ġa ch
Ġm ak
Ġw rest
ha s
Ġd rive
Ġl ap
Ġth orn
ar row
ar ies
Ġto il
st ain
Ġg idd
Ġin ward
ut s
ch b
ĠT rib
ĠT ranio
ĠW in
ĠC asca
Ġst ub
Ġst retch
ra g
ĠO UTLAW
ĠM e
ĠM ust
Ġre jo
am emn
Ġdo ctor
Ġwill ingly
AN IA
AR CHBISHOP
ea rer
ĠG oths
Ġsp le
Ġkn it
Ġkn ot
Ġam bitious
qu ire
Ġgo dd
LO DOVICO
Ġqu e
ĠJ upiter
Ġcha rac
ĠV illain
ag g
Ġdes ir
Ġpart ly
Ġper fection
ber al
CH IRON
Ġnor th
Ġrem ains
Ġmer ri
Ġserv ices
Ġgl o
Ġtra vel
Ġplay s
Ġtri cks
SAL ERIO
Ġhum ours
Ġsure ly
Ġstri fe
ĠTIM ON
EMB ROKE
aw s
ran k
Ġspo il
Ġstra in
Ġread ing
Ġreven g
Ġdep end
Ġcho ler
Ġcor re
Ġcor on
Ġsign s
ĠJul ia
fere nt
Ġlust y
Ġwed ding
Ġver se
ĠFl ore
Ġwhore son
Ġpet ition
Ġwond rous
Ġmiser able
ĠCL ARENCE
DOL L
hum us
Ġrhy me
pic ion
Unt il
IV ERS
Ġpock et
amemn on
B id
H ark
K ne
M O
M OWBRAY
N othing
W hether
b re
b es
c est
d en
h ra
i ct
m outh
p ar
s ha
s ame
Ġm ile
Ġw hip
re land
re ls
Ġb ore
or ter
ĠI reland
Ġc al
Ġo ce
Ġy oke
Ġg ru
se e
le nder
ld om
ĠT ut
ĠA U
ĠA ng
ord elia
Ġre ce
Ġre pe
Ġli beral
ĠB aptista
ĠP adua
ea v
ĠG aunt
OR LEANS
ear d
ĠD is
ard ed
res sed
Ġcon ven
Ġbl us
ort ens
Ġun worthy
ANT IO
Ġoff ices
Ġwho lesome
ci ans
Ġbre ach
Ġdes erves
li a
Ġother wise
Ġtr im
AB ANTIO
Ġbeg u
PA INTER
ew is
ile d
ĠIs ab
Ġkind red
Ġgi ving
BR ABANTIO
Ġtre es
Ġsub tle
Ġstre am
Ġyouth ful
Ġhang ing
MAR IANA
Ġkiss es
Ġjoy ful
Ġdist ra
Ġter m
Ġund o
Ġpen ny
Ġguard ed
Ġred ress
Ġdu ked
ĠOr leans
Ġadd ition
Ġmess age
cri ption
Ġabs ent
Ġobs erve
Ġsatisf action
Ġconqu est
Ġpossess ion
Ġentertain ment
Ġjealous y
Ġda ily
Ġinno c
Ġdec ay
INC ENTIO
Ġga it
Ġsau cy
Ġaud ience
Ġdeter min
ĠGu ild
Ca esar
ĠMil an
Ġexam ple
ĠMal volio
ĠLau nce
ĠAg amemnon
Ġreck on
Ġclim b
Ġcens ure
Ġfif ty
Ġserp ent
Ġprivile ge
Ġscept re
THER ER
ĠPost humus
Ġgodd ess
A mong
D ou
F ull
T were
c ourt
d uff
f av
g ues
g rim
l se
m et
t les
v est
Ġ -
he ar
Ġs ine
Ġs iege
in ct
Ġw ail
is ible
Ġf ed
Ġf reedom
it al
Ġc orse
Ġo ak
en ster
Ġp ee
at ive
ce d
ĠT am
ke ep
ĠS y
ĠS OMERSET
ĠS oldiers
ĠS lender
Ġst ing
ĠM ethinks
Ġso il
Ġli qu
Ġas pect
Ġas ham
am ing
Ġdo zen
Ġwill s
AN C
us es
AR RO
ĠG R
ĠL ong
Ġsp l
Ġsp urn
Ġsh own
qu is
Ġcon ference
ive red
em per
ble d
ĠK eep
Ġshould er
Ġun m
Ġdis ease
Ġqu ench
IL L
Ġle ads
Ġtr oops
Ġsc ru
Ġwar ri
Ġad o
Ġke y
Ġcont ro
Ġarm ed
Ġend ed
Ġyoung er
Ġco at
Ġch id
Ġcur t
Ġcur rent
Ġimp rison
Ġdre w
Ġearth ly
Ġdisc ontent
Ġmis c
OUR TH
Ġban ished
Ġadv ise
ĠEd gar
Ġpal m
Ġweep s
iet y
Ġlate ly
Ġdraw s
no on
Ġsen ators
Ġter ror
Ġest im
Ġwis hes
Ġgar land
Ġtown s
Ġenter prise
Ġexc hange
Ġfeel ing
ĠSc ene
Ġgrant ed
Ġag o
Ġresol v
Ġer ror
phe lia
Ġoffic ers
ĠAd ieu
Ġinj ury
Ġweap on
Ġnecess ity
ĠPol onius
soe ver
ĠGon eril
Ġjour ney
ĠPort ia
CAT ESBY
Ġstub born
Ġsple en
ortens io
enster n
! "
B OTH
C ry
C ons
F ollow
G uil
M en
M aster
M uch
O BERON
R es
R IPPA
W it
W IDOW
g n
h us
s ir
w hen
z y
Ġ 4
Ġ ENOBARBUS
Ġt aking
in ate
Ġw ot
Ġb ay
Ġf ret
ĠI m
Ġd uke
es e
Ġc rest
Ġl ent
Ġl ying
Ġn im
Ġh om
Ġp ate
le an
ed ition
ill ing
ĠW AL
ĠS IL
ĠS ince
ĠC oun
ĠC ARDINAL
Ġst ro
ĠH u
ĠP ar
ĠG ra
ĠE X
ĠE very
ĠL ewis
Ġan cest
Ġsu its
ĠF ool
Ġsp ace
Ġfa res
Ġsh un
Ġcon ceive
ĠR em
Ġtheir s
Ġor n
Ġor chard
Th ree
EL BOW
Ġshould ers
un cle
ick le
Ġgra ves
Ġhear s
Ġwr ink
Ġsc our
Ġsc ore
Ġsc ope
Ġper haps
ĠPr inces
Ġapp l
Ġapp ointed
che ster
Ġbeg an
Ġrem orse
cl am
Ġsm iling
ĠBe cause
ĠSt ill
Ġcar ried
AG RIPPA
Ġadv ent
Pr ay
ener al
Ġgre w
Ġstri ve
Ġstrong ly
let e
Ġneed ful
Ġfore ign
ĠAr m
At tend
Ġwise ly
anc ing
Ġknight s
Ġquar ter
ĠRe gan
Ġreb els
Ġble eding
Ġinv isible
Ġtrouble d
ARDIN ER
Ġtor ch
ĠGree ks
ĠPo ins
Ġref use
Ġpin ch
Ġfle et
WILLIAM S
ĠCA ESAR
Ġcomb at
UG H
Ġinvent ion
GA UNT
Ġpil grim
Ġven om
ĠATTENDANT S
Ġgidd y
chb ishop
Ġoce an
Ġpee vish
I LO
J OHN
M A
M ark
O ther
P R
T OR
T ru
a res
b les
b ray
e rer
g ent
h orse
i ven
k n
t ic
u pt
w ho
he l
in ous
Ġm oral
Ġw and
re me
re rs
ha nt
is hes
Ġc aught
Ġl aughter
Ġy ellow
Ġp ark
Ġp arent
Ġto ken
ow bray
Ġg ather
at ic
Ġha ll
Ġe c
Ġe ast
Ġwith draw
Ġwe ek
as ant
id us
ĠC ordelia
ri l
ĠO li
ĠO phelia
ĠH A
ĠM ant
ur vy
Ġde af
AN MER
Ġsha pes
ĠP at
ĠP and
Ġse qu
Ġall eg
Ġv ul
OL ANIO
here d
Ġthem e
ic ilia
ED ANT
Ġr ate
ak er
os op
Ġbre ad
Ġlook ing
Ġcomm ons
Ġper f
Ġwh it
Ġru ff
ENT ON
bl et
Ġconf usion
Ġco zen
Ġfe ver
Ġcur st
Ġcur sed
Ġcur ses
Ġbel ov
Ġsub d
Ġacc ident
Ġpra ises
ati ent
Ġban k
Ġadv is
Ġcommand s
ĠAt hen
Ġgrow ing
Ġsupp ly
Ġlear ning
Ġint erest
Ġdel icate
pr us
PAR IS
stand ing
hil osop
Ġhair s
Ġpit iful
Ġdire ct
Ġabs olute
Ġfam ous
ĠMac duff
Ġresol ution
Ġshad ows
GU E
Ġamb assad
Ġsus picion
Ġwhi les
Ġconcl usion
UL L
UL PH
Ġcontin ue
Ġpet ty
Ġgent ly
OC TOR
ĠANTON IO
Ġvent ure
PO INS
Ġhap ly
ĠBA STARD
ĠVI I
ĠWor cester
Ġappre hend
Ġhig her
Ġpurcha se
ĠTw o
SUR REY
ĠKather ine
ĠTam ora
ĠCoun cil
F air
F OURTH
H ence
H ang
I mp
O nce
P LANTAGENET
S ing
S erv
a qu
a ches
d aughter
e ves
f rom
g entle
i que
m ian
n el
r as
r atch
s ion
s ire
v is
x ford
Ġt ut
Ġt um
Ġa unt
Ġw ard
Ġb all
Ġb urst
Ġb asket
it ic
Ġd ote
Ġo pe
Ġn ation
Ġth rown
Ġh y
Ġh ie
Ġp ace
ot ted
ow l
ce ll
ce llent
ill e
ill y
ĠT RO
Ġe vent
Ġu g
ĠS T
ER ICK
ĠC ade
ri ef
Ġst ale
ĠO xford
ĠH ELEN
ĠH ots
ĠH ortensio
ĠM onsieur
ĠM owbray
Ġli kes
ĠB R
AN IEL
ĠP aul
ĠL e
Ġse mbl
ru nk
ĠD u
ST ANLEY
Ġsh ines
AL EX
ie l
Ġknow ing
ic ation
pp er
Ġcan n
Ġhat ed
ep idus
ED ERICK
ound ed
ĠJ ud
own e
Ġfl at
Ġpart ing
ĠNo ble
Ġra pier
Ġaf eard
Ġru l
Ġstand ing
Ġnew ly
Ġbeg un
Ġrem ove
Ġbra w
cl us
ĠIS ABELLA
It em
Ġco ll
Ġpri ce
Ġover th
Ġbreak s
Ġbus y
ATH ANIEL
ĠBE AU
Ġjoy s
with in
Ġdist ance
Ġfield s
ĠAr chbishop
Ġcontent ed
Ġdiv or
Ġbosom s
Ġprop ort
Ġwoe ful
Ġinstru ct
Ġinstru ments
Ġve ins
Ġstru mpet
Ġhost ess
ĠMUR THERER
wor th
head ed
uri o
Ġjew els
ĠThan e
ĠLUC IUS
Ġeld est
SO OTHSAYER
Ġobedi ent
Ġtrib unes
og en
Ġassur ance
shi re
Ġcher ish
Ġprod ig
Ġwat ers
Ġdischar ge
Ha ving
ĠBo hemia
Ġinher it
ĠTur k
ĠSat urn
Ġincre ase
ĠWin chester
ĠGuild enstern
ĠHots pur
) ,
. "
C UR
D ITA
E ARL
F ind
H el
M aking
O s
W ilt
g reat
i ps
m o
n es
o llo
t ake
u gg
y et
Ġt ied
Ġa le
Ġw ander
Ġb ru
Ġl in
Ġn on
Ġn et
Ġn est
Ġn ails
Ġth in
Ġh ue
Ġp hilosop
st able
Ġg oose
Ġbe held
se c
ut ch
ut io
Ġnot ice
ĠT hose
ĠW indsor
ER AL
ra ise
ra ft
ĠH UM
ĠM ER
Ġre ach
ur sed
Ġli ft
ro clus
Ġsha de
ĠP ho
ĠP ers
ĠE ros
ĠL o
ĠL epidus
Ġlo ad
Ġsu e
il ful
Ġsp y
ĠD ear
Ġsh ook
Ġman if
Ġman hood
ous illon
Ġam en
Ġam end
ul ate
ol er
Ġor acle
ĠK E
Ġr ouse
Ġun just
Ġho le
ĠEx eter
Ġro ses
Ġlea p
li pp
Ġdeath s
Ġser ious
Ġtr oop
AND RA
Ġper chance
land o
sw er
Ġcont ents
Ġmight st
Ġsl ay
Ġbeg ot
Ġcould st
Ġpur sue
Ġking ly
Ġmer c
Ġbra nd
rant z
Ġco p
Ġrest ore
Ġtra vell
ont in
Ġpra is
Ġcou ch
Ġstre w
Ġlight ning
Do es
Ġval ue
Ġcar ri
Ġstri kes
Ġless er
UTEN ANT
Ġrun ning
ĠSERV ING
Ġcry ing
ROM WELL
Ġmet al
PER DITA
Ġdisp os
ĠSERVANT S
Ġdel ivered
Ġter rible
Ġpoint s
Ġste ep
Ġsign ior
oss ess
Ġprop hes
Ġprov o
Ġclose t
br other
Ġmir acle
ĠPro v
Ġap ace
Ġforsw ear
ĠTit inius
IE UTENANT
ĠMAR IA
Ġamong st
Mar g
VIR GILIA
Ġconcl ude
Ġdest roy
ĠLUC ENTIO
ĠAR IEL
Ġur g
Ġcondition s
Ġimm ediate
Ġphysic ian
enc rantz
Ġprepar ation
lend ower
ĠCy prus
Ġtreacher ous
Ġgaz e
Ġeag le
ĠOFFIC ERS
SIM PLE
Ġeas ily
ĠBer owne
Ġcerem ony
Ġpron ounce
hers ites
Ġrecom pense
Ġcommonwe alth
Ġrebell ion
ĠIsab el
ĠTRO ILUS
B L
B EDFORD
D ost
G iving
H ost
J ESSICA
K nock
L ong
M ARGARET
O ld
S ON
S LY
V OST
V INCENTIO
W INCHESTER
b ell
b el
c har
o ft
p oral
r ish
s ide
t ong
v oy
z o
Ġt e
Ġt ab
Ġs outh
in o
in ary
re nce
Ġb on
Ġb ur
er al
er ity
or ough
it ing
Ġd at
Ġc ove
Ġy es
Ġn am
ar on
Ġh ouses
Ġp hra
Ġto oth
ve ls
st it
at he
ĠT r
Ġfor ms
ĠA ene
Ġwe pt
al a
ĠS ure
ER BURY
ĠC AP
ĠO ld
ĠH o
Ġre v
EN AS
Ġsha re
ON US
and al
and ria
ĠE n
Ġse ize
nt y
ĠF ather
Ġsp it
ĠD raw
ul f
ic a
LO V
ĠThe ir
Ġr he
Ġr ush
ig nty
Ġlike wise
ĠTh ree
ANT ERBURY
ci pl
Ġab oard
EC ENAS
li ament
Ġfair ies
Ġri ot
Ġsweet ly
Ġad vers
IAN S
Ġra ck
Ġra gged
Ġke en
RE IGNIER
ss es
Ġbra ce
ĠPRO VOST
Ġnat ures
ac les
Ġcons pir
Ġco in
Ġfall ing
ens ion
UN G
Ġafter noon
ab ly
Ġmatter s
Ġhusband s
Ġkill s
Ġbes ide
Ġhence forth
Ġjust ly
Ġdisc retion
Ġbreak ing
Ġbus h
IG ONUS
Ġbo ots
Ġroyal ty
Ġdist ress
Ġmet tle
COR IN
ĠWith in
BUR GUNDY
Ġsur feit
Ġburn s
Ġweak ness
Ġbehold ing
Ġprov ide
Ġcle an
Ġcoward s
Ġdire ctly
Ġreb el
SIL VIUS
Ġeffect s
ĠChar mian
Ġgrand sire
Ġdest ruction
Ġthro ats
Ġbot tle
Ġbeha viour
Ar t
Ġow es
Ġpot ent
Ġtrib ute
Ġpersu ade
Ġappare nt
Ġsto pp
Ġdece it
Ġgriev ous
Ġextrem ity
Ġneg lect
Ġtrif le
Ġpear l
ĠCOR IOLANUS
Ġresc ue
Ġintell igence
Ġsoci ety
ĠOffic ers
ĠIm ogen
Ġnim ble
ĠEX ETER
clam ation
ĠHA STINGS
Ġalleg iance
Ġvul gar
Os r
ĠAene as
C Y
D ICK
E BE
H enry
L ay
L eave
P ar
P IR
R IVERS
S m
S end
S leep
W elcome
a us
a gain
a way
b ol
l am
l ogue
n ame
n zo
o an
s ay
s peak
s cri
s bury
t oo
v ity
w ord
w ork
y m
Ġ RO
Ġt res
Ġm ing
Ġw alks
ha d
Ġb ul
Ġb ol
Ġb rown
er le
Ġf rank
Ġd ine
es eech
Ġc ook
Ġc ud
Ġc alf
Ġl ark
Ġth irty
ar ter
Ġp est
Ġp ull
Ġto day
Ġg ame
Ġbe ams
se y
se ll
Ġme dd
ed er
Ġfor ty
ĠA L
ad ies
ĠS E
ĠC ar
ĠC AM
Ġst y
ĠH im
ĠH as
ĠM on
Ġli king
ĠB esides
ore nzo
ck now
AR THUR
ĠG lendower
ĠL AD
Ġse ldom
OR TER
Ġsu c
Ġsu itor
Ġsp read
ĠD un
ĠN urse
Ġv ass
Ġam ends
Ġam orous
OL ER
Ġbl ue
Ġbl az
Ġsw ain
Ġsw ears
el ing
Ġsir s
ĠTh urio
Ġdis e
Ġdis pose
Ġout ra
Ġtru nk
Ġpro cess
Ġex per
Ġex ile
Ġal oud
ick ly
Ġfl out
Ġle vel
PH EBE
Ġsweet est
IAN US
Ġper pet
Ġever l
Ġcont ract
Ġpres erve
Ġbeg et
Ġrep ose
Ġset s
Ġansw ers
AM US
Ġbel oved
Ġacc om
Ġacc ess
ĠSt ep
Ġlight s
use d
Ġsound ed
Ġbo x
Ġstrange ly
Ġprom pt
Ġtem ple
Ġcomfort s
Ġexce eding
Ġwork ing
Ġdep uty
Ġsuff ic
Ġsk in
Ġvi ctor
Ġdrink ing
ĠFR ENCH
Ġappro ve
Ġbond s
ĠOr lando
Ġind ign
Ġshi eld
ĠCount y
Ġproceed ing
ca pe
ĠSh ow
ĠHelen a
Ġevil s
ĠGentle man
Ġconce al
Ġur ge
Ġdism iss
Ab out
ĠMess ala
Ġmed ic
Ġhung ry
ĠCA IUS
DOL ABELLA
Ġstep s
MONT ANO
Ġoppos ite
ĠOctav ius
Ġlod ging
ĠNOR THUMBERLAND
Ġfro st
Ġfant ast
ĠSH ALLOW
ĠVer ona
ĠPis anio
Ġyester day
ĠDen mark
Ġcler k
TIT ANIA
ĠLaunce lot
ĠWAL ES
ĠHu gh
ĠMant ua
ĠAthen ian
Ġug ly
ĠHELEN A
ĠMER CHANT
ĠKE EPER
Ġphra se
ĠLAD IES
C ROMWELL
D ies
D OCTOR
G lend
G ARDINER
L e
L ords
L ARTIUS
M any
N OX
N ATHANIEL
O ff
O FF
P TAIN
R ather
T r
T IS
a is
f ool
g ot
i en
l ter
m ay
m other
p art
r ity
r oof
x com
y r
Ġt ur
Ġt ren
Ġa v
ou bt
in ore
Ġm ould
Ġw ore
re et
ha st
Ġd un
Ġd iet
Ġl ads
Ġn ap
en ches
Ġth read
Ġp ed
Ġp ul
Ġp ush
hat h
Ġbe re
Ġbe ds
ĠT hersites
ĠA aron
ke y
ad le
as p
al ty
ĠS et
ĠC ousin
ri c
ri al
Ġst out
Ġst um
Ġli ver
ver ty
ĠB OY
IN OR
Ġdo ve
Ġwill ow
ON IUS
ĠP art
ĠP AND
ĠG rem
ĠG eneral
ĠE p
ĠL eave
OR GE
Ġlo dge
ĠD EM
ĠD avy
Ġfa ct
ST ER
Ġv ault
Ġman age
AL ICE
ant us
Ġup right
Ġgood s
em antus
Ġgo ss
Ġthere by
ure d
Ġar ise
um n
um es
EL INOR
ig ent
Ġsee ks
Ġlike ly
Ġbr an
Ġdis cipl
Ġqu est
ĠJ es
ĠJ aqu
Ġpo verty
Ġex pl
Ġal t
Ġoff ences
Ġro aring
Ġbet imes
Ġfl ame
Ġbre eding
Ġfear ing
Ġri ver
CA PTAIN
ite ous
Ġra is
You ng
Ġapp oint
che l
che ss
Ġend eav
Where of
mp ets
Ġyoung est
Ġgu ide
iv ity
ĠBe hold
Ġchar g
Ġpe er
Ġright ly
Ġimp ed
Ġdra g
Ġbid ding
Ġacc ording
Ġdou blet
Ġthank ful
mb ers
Ġhapp ily
vers es
ates by
ken ess
ls inore
Ġcoun cil
CR ANMER
Ġyield ed
Ġpar ce
Ġwrit es
PAND ULPH
Ġsovere ignty
Ġste ward
Ġsign ify
Ġprov ided
Ġta x
Ġwonder ful
IFF ORD
Ġag ed
Ġaction s
Com es
Ġinter p
Ġsever ally
Ġkingdom s
ĠDid st
Ġresol ve
urs ions
sp ir
Ġsecret s
Ġer r
ĠRos encrantz
ĠANT IPHOLUS
ĠSil ence
Ġqual ities
Ġele ments
Ġgrand am
Ġmut iny
Ġinstant ly
Ġinj uries
ĠOn ly
Ġgovern ment
Ġcompl ain
ĠAp emantus
Ġsli p
Ġwag er
Ġimag ination
rum io
Ġbegg ars
ĠCL IFFORD
ĠBA SS
ĠCoriol i
Ġloyal ty
rep are
Ġtreacher y
Ġperj ur
ĠOctav ia
Ġmurde rer
ĠMerc utio
Ġpier ce
ĠOL I
ĠYO U
Ġtou ches
Ġbegu ile
Ġduked om
Ġspl it
Ġstro kes
ĠCAP TAIN
ĠGrem io
ĠDEM ETRIUS
E lse
F all
F ran
F ENTON
H Y
L L
P et
R ATCLIFF
S eem
Z ounds
b on
b ast
c ock
f ast
f ace
j ud
j oin
m ission
n s
Ġt im
he ard
Ġa x
Ġm ethought
Ġw aking
Ġw ipe
Ġb ag
ll en
Ġf an
Ġf ount
ĠI MO
Ġd it
Ġd il
Ġd ial
Ġd iff
Ġl ower
en ius
Ġth rew
Ġh ounds
an ish
an ley
Ġha w
Ġnot es
Ġnot ed
ĠT ALBOT
ent on
ad d
as ing
id s
al ter
ĠH ouse
ĠM other
Ġre ar
EN ICE
Ġli keness
ĠB ear
ĠB ISHOP
IN O
ro om
ĠP R
ĠP ut
ess ica
ĠG rumio
ĠE ast
ĠE ARL
Ġse iz
Ġsp r
Ġsp ee
ĠD IO
Ġfa wn
ĠN ed
AL A
Ġam ity
ul ous
Ġcon sequ
Ġknow est
Ġbl ot
Ġwor ks
are r
Ġr at
ĠHe c
Ġpro g
ĠJ ustice
ĠJ oan
ĠJ essica
Ġex erc
ĠV ENICE
ESS ALA
Ġtell ing
Be hold
li us
man ner
Ġcall ed
PE TER
Ġru st
Ġcomp are
the ir
ĠCa wd
ang ers
Ġbra gg
ian o
ian us
Ġco xcom
Ġacc ord
ĠCl ot
ĠSt ri
omet hing
Ġcar ries
Ġgr ass
com p
ran ch
with standing
Ġstra w
Ġtalk ing
Ġprom ised
Ġsupp ose
form ed
Ġdoubt ful
Ġdef y
ub lius
Ġsad ness
Ġsen seless
Ġinf ant
Ġbar gain
Ġbar bar
Ġpleas ing
Ġrec on
Ġpay s
Ġsur vey
Ġrequ ite
esh rew
Ġexp edition
Ġprop ert
Ġemb ass
Ġheir s
Ġhide ous
Ġrel igious
idd en
SIL ENCE
Ġshi ps
Ġsafe ly
Ġbow els
Ġreceive d
Ġprot ect
Ġwhi pt
ĠAd am
Ġconcl ud
Ġins ol
Ġgreet ing
ĠBl unt
ĠCon stable
Ġmour ning
Ġhor rible
Ġimm ortal
Ġexpect ation
Ġconquer or
Ġfun eral
Ġdeter mine
Ad v
ĠOFFIC ER
Ġimper ial
ĠNOR FOLK
fri end
Bel ieve
ĠVols ces
Ġdow ry
ĠGU ARD
Ġfors ake
ĠTrib unes
Ġrejo ice
Ġcharac ter
Ġmerri ly
Ġconven ient
Ġinnoc ence
Ġscru ple
ERAL D
LOV ELL
Ġexpl o
ĠIMO GEN
Ġspee ches
ĠDIO MEDES
ĠCawd or
' !
A lex
C h
C IN
E B
F ore
F ie
G ads
H as
K iss
L ea
L ies
M AY
M ESSALA
N A
P EDANT
S e
Y S
a gainst
b ation
c over
f ield
i um
l ord
m ing
m ight
m ust
n ken
r t
s m
t ance
t een
w ater
Ġ &
Ġt ig
Ġa cknow
Ġm as
Ġm iles
Ġm iddle
Ġw et
Ġw ak
re ason
ha el
or p
ll ing
Ġf em
it ation
Ġd i
Ġd iest
Ġo x
Ġn arrow
Ġhe dge
ve t
Ġbe like
Ġin fection
Ġmy ster
Ġha re
ch o
ĠT oo
Ġfor c
our n
our age
ĠW alter
Ġhis t
ĠC ons
ri pp
ĠH OST
EN N
Ġli ons
ĠB oth
Ġde fe
Ġde fect
ĠP edro
ĠG all
ĠL orenzo
OR US
Ġan n
Ġsu gg
ĠF ore
if ferent
Ġsp ar
Ġsp ark
Ġsp ect
ĠD own
ĠD ROMIO
Ġfa ction
Ġv oy
Ġsh ri
Ġsh out
Ġcon ver
Ġcon verse
em pl
ic hael
Ġcan ker
Ġwor shi
Ġr oof
Ġr ites
Ġj ot
Ġen m
Ġal oft
os ing
ap h
Ġbre eds
Ġri ches
Ġsc urvy
Ġsc andal
Ġhast y
Ġpre ced
Ġaf oot
aint s
OM AS
Ġever more
Ġcont ain
Ġnoble man
Ġhouse hold
ĠBe ing
ab s
Ġres ign
Ġback s
ĠAnt ip
Ġmo ves
Ġthr ong
Ġass ault
Ġcou ple
ĠSt anley
Ġhel m
Ġsure ty
Ġcar riage
Ġbea ut
Ġinst ance
Ġbo ar
Ġcare ful
Ġcare less
Ġbreath ing
Ġdru nken
Ġfore head
Ġjud g
Ġsister s
Ġsit ting
Ġcra ves
Ġaff ord
rew sbury
Ġinf irm
LEN NOX
Ġact s
Ġdiv ide
Ġdiv ision
Ġrequ ire
Ġgall ows
Ġfour teen
Ġpen it
Tw ill
cher s
Ġsuffer ance
Ġbeast ly
Ġgrie ves
Ġdire ction
AV Y
Ġmarch ing
Ġflatter y
Ġcruel ty
Ġsch ol
ĠVen us
Ġcre ate
Ġdeare r
FR EDERICK
mong st
Ġdism al
Ab ove
ĠAp ollo
