{"!":0,"\"":1,"#":2,"$":3,"%":4,"&":5,"'":6,"(":7,")":8,"*":9,"+":10,",":11,"-":12,".":13,"/":14,"0":15,"1":16,"2":17,"3":18,"4":19,"5":20,"6":21,"7":22,"8":23,"9":24,":":25,";":26,"<":27,"=":28,">":29,"?":30,"@":31,"A":32,"B":33,"C":34,"D":35,"E":36,"F":37,"G":38,"H":39,"I":40,"J":41,"K":42,"L":43,"M":44,"N":45,"O":46,"P":47,"Q":48,"R":49,"S":50,"T":51,"U":52,"V":53,"W":54,"X":55,"Y":56,"Z":57,"[":58,"\\":59,"]":60,"^":61,"_":62,"`":63,"a":64,"b":65,"c":66,"d":67,"e":68,"f":69,"g":70,"h":71,"i":72,"j":73,"k":74,"l":75,"m":76,"n":77,"o":78,"p":79,"q":80,"r":81,"s":82,"t":83,"u":84,"v":85,"w":86,"x":87,"y":88,"z":89,"{":90,"|":91,"}":92,"~":93,"¡":94,"¢":95,"£":96,"¤":97,"¥":98,"¦":99,"§":100,"¨":101,"©":102,"ª":103,"«":104,"¬":105,"®":106,"¯":107,"°":108,"±":109,"²":110,"³":111,"´":112,"µ":113,"¶":114,"·":115,"¸":116,"¹":117,"º":118,"»":119,"¼":120,"½":121,"¾":122,"¿":123,"À":124,"Á":125,"Â":126,"Ã":127,"Ä":128,"Å":129,"Æ":130,"Ç":131,"È":132,"É":133,"Ê":134,"Ë":135,"Ì":136,"Í":137,"Î":138,"Ï":139,"Ð":140,"Ñ":141,"Ò":142,"Ó":143,"Ô":144,"Õ":145,"Ö":146,"×":147,"Ø":148,"Ù":149,"Ú":150,"Û":151,"Ü":152,"Ý":153,"Þ":154,"ß":155,"à":156,"á":157,"â":158,"ã":159,"ä":160,"å":161,"æ":162,"ç":163,"è":164,"é":165,"ê":166,"ë":167,"ì":168,"í":169,"î":170,"ï":171,"ð":172,"ñ":173,"ò":174,"ó":175,"ô":176,"õ":177,"ö":178,"÷":179,"ø":180,"ù":181,"ú":182,"û":183,"ü":184,"ý":185,"þ":186,"ÿ":187,"Ā":188,"ā":189,"Ă":190,"ă":191,"Ą":192,"ą":193,"Ć":194,"ć":195,"Ĉ":196,"ĉ":197,"Ċ":198,"ċ":199,"Č":200,"č":201,"Ď":202,"ď":203,"Đ":204,"đ":205,"Ē":206,"ē":207,"Ĕ":208,"ĕ":209,"Ė":210,"ė":211,"Ę":212,"ę":213,"Ě":214,"ě":215,"Ĝ":216,"ĝ":217,"Ğ":218,"ğ":219,"Ġ":220,"ġ":221,"Ģ":222,"ģ":223,"Ĥ":224,"ĥ":225,"Ħ":226,"ħ":227,"Ĩ":228,"ĩ":229,"Ī":230,"ī":231,"Ĭ":232,"ĭ":233,"Į":234,"į":235,"İ":236,"ı":237,"Ĳ":238,"ĳ":239,"Ĵ":240,"ĵ":241,"Ķ":242,"ķ":243,"ĸ":244,"Ĺ":245,"ĺ":246,"Ļ":247,"ļ":248,"Ľ":249,"ľ":250,"Ŀ":251,"ŀ":252,"Ł":253,"ł":254,"Ń":255,"Ġt":256,"he":257,"Ġa":258,"ou":259,"Ġs":260,"in":261,"Ġm":262,"Ġw":263,"re":264,"ha":265,"nd":266,"Ġthe":267,"Ġb":268,"is":269,"er":270,"or":271,"ll":272,"Ġf":273,"on":274,"it":275,"ĠI":276,"Ġd":277,"es":278,"Ġc":279,"Ġl":280,"Ġo":281,"Ġy":282,"Ġn":283,"en":284,"Ġth":285,"ar":286,"Ġh":287,"Ġyou":288,"Ġp":289,"Ġto":290,"hat":291,"Ġand":292,"Ġof":293,"ot":294,"Ġhe":295,"an":296,"ve":297,"ing":298,"ow":299,"om":300,"st":301,"Ġg":302,"at":303,"Ġbe":304,"Ġin":305,"se":306,"ce":307,"Ġmy":308,"Ġha":309,"et":310,"le":311,"ay":312,"ld":313,"ut":314,"Ġme":315,"ith":316,"ir":317,"im":318,"'d":319,"ch":320,"ed":321,"Ġnot":322,"gh":323,"Ġis":324,"'s":325,"ill":326,"Ġthat":327,"ĠT":328,"oo":329,"Ġe":330,"Ġfor":331,"ĠA":332,"our":333,"ke":334,"Ġu":335,"ĠW":336,"Ġwith":337,"Ġwe":338,"ent":339,"ad":340,"Ġit":341,"as":342,"id":343,"Ġyour":344,"And":345,"al":346,"her":347,"ter":348,"ĠS":349,"Ġhis":350,"ER":351,"ĠC":352,"ri":353,"Ġst":354,"ra":355,"Ġthou":356,"Ġhim":357,"ght":358,"ĠO":359,"ĠH":360,"ome":361,"Ġthis":362,"ĠM":363,"Ġhave":364,"ord":365,"Ġre":366,"ly":367,"ur":368,"Ġso":369,"Ġon":370,"EN":371,"Ġli":372,"Ġas":373,"US":374,"ver":375,"ĠB":376,"Ġk":377,"ore":378,"ould":379,"IN":380,"ain":381,"am":382,"ro":383,"Ġdo":384,"Ġde":385,"Ġwill":386,"AN":387,"us":388,"ood":389,"hi":390,"ES":391,"ck":392,"AR":393,"Ġsha":394,"ON":395,"ĠP":396,"ea":397,"ion":398,"The":399,"ess":400,"est":401,"and":402,"ĠG":403,"ĠE":404,"ĠL":405,"Ġse":406,"OR":407,"Ġher":408,"Ġthy":409,"nt":410,"th":411,"Ġlo":412,"Ġno":413,"ge":414,"Ġbut":415,"Ġan":416,"Ġsu":417,"Ġall":418,"ĠF":419,"ru":420,"il":421,"ake":422,"if":423,"ear":424,"ell":425,"Ġsp":426,"ĠD":427,"Ġfa":428,"ct":429,"Ġ'":430,"ĠN":431,"Ġkn":432,"Ġthee":433,"Ġshall":434,"ight":435,"ST":436,"ho":437,"To":438,"Ġv":439,"Ġare":440,"han":441,"rom":442,"ast":443,"Ġby":444,"Ġour":445,"ard":446,"Ġsh":447,"art":448,"Ġman":449,"hen":450,"Ġne":451,"AL":452,"end":453,"Ġat":454,"ine":455,"ous":456,"ant":457,"Ġam":458,"OL":459,"here":460,"Ġup":461,"That":462,"Ġlord":463,"Ġmu":464,"TH":465,"Ġcom":466,"out":467,"sel":468,"one":469,"'ll":470,"qu":471,"Ġgood":472,"ie":473,"ind":474,"ul":475,"res":476,"Ġcon":477,"ive":478,"em":479,"hich":480,"Ġgo":481,"ĠY":482,"ong":483,"ble":484,"LE":485,"Ġfrom":486,"Ġwhat":487,"ry":488,"ers":489,"ven":490,"nter":491,"RO":492,"row":493,"Ġthem":494,"au":495,"Ġshe":496,"oth":497,"Ġknow":498,"Ġlove":499,"ĠR":500,"Ġbl":501,"Ġsw":502,"Ġwas":503,"hy":504,"IC":505,"Ġwould":506,"ic":507,"LO":508,"Ġmore":509,"Ġpr":510,"pp":511,"all":512,"ath":513,"Ġcan":514,"Ġhat":515,"Ġnow":516,"Ġthere":517,"ep":518,"ost":519,"Ġtheir":520,"fe":521,"ol":522,"Ġor":523,"el":524,"Ġthey":525,"Ġwor":526,"UC":527,"Ġthan":528,"self":529,"ure":530,"Ġar":531,"ate":532,"Ġsir":533,"IA":534,"ĠWhat":535,"Ġif":536,"Enter":537,"ink":538,"Ġsay":539,"IO":540,"Ġus":541,"ĠK":542,"Ġlet":543,"ING":544,"But":545,"ue":546,"ish":547,"Ġhere":548,"ort":549,"ED":550,"ng":551,"are":552,"ĠThe":553,"other":554,"Th":555,"reat":556,"um":557,"ves":558,"EL":559,"fore":560,"ather":561,"ook":562,"od":563,"Ġr":564,"Ġhath":565,"ak":566,"Ġwell":567,"ame":568,"IUS":569,"As":570,"ig":571,"Ġsee":572,"Ġthen":573,"Ġpl":574,"Ġone":575,"ound":576,"Ġlike":577,"For":578,"Ġbr":579,"Ġj":580,"Ġcome":581,"Ġdid":582,"ĠOF":583,"Ġshould":584,"ĠHe":585,"Ġun":586,"Ġmay":587,"ance":588,"gain":589,"Ġmad":590,"Ġmake":591,"ĠTh":592,"eak":593,"Ġho":594,"un":595,"ide":596,"Ġdis":597,"Ġupon":598,"ice":599,"Ġout":600,"very":601,"Ġsa":602,"UT":603,"Ġwhich":604,"Ġmust":605,"Ġwere":606,"Ġ[":607,"pe":608,"Ġhad":609,"KING":610,"ity":611,"ime":612,"IS":613,"Ġtru":614,"IR":615,"pt":616,"Ġtoo":617,"Ġqu":618,"ence":619,"TR":620,"Ġpro":621,"unt":622,"ther":623,"orn":624,"Ġheart":625,"ies":626,"Ġhand":627,"Ġwhen":628,"Ġsuch":629,"ANT":630,"IB":631,"ĠJ":632,"Ġpo":633,"Ġhon":634,"Ġen":635,"ERS":636,"ness":637,"IL":638,"Ġex":639,"ave":640,"ond":641,"ff":642,"Ġagain":643,"Ġspeak":644,"Ġal":645,"ĠCO":646,"Ġey":647,"ince":648,"ise":649,"wn":650,"ĠKing":651,"ass":652,"Ġyet":653,"ist":654,"ick":655,"ire":656,"Ġoff":657,"Ġsome":658,"ady":659,"Ex":660,"ough":661,"AC":662,"Ġwho":663,"Ġthese":664,"eet":665,"'t":666,"ci":667,"Ġfri":668,"ARD":669,"urn":670,"ack":671,"ĠEx":672,"own":673,"Ġthink":674,"With":675,"Ġfather":676,"Ġmine":677,"ĠAnd":678,"oy":679,"ose":680,"ings":681,"ĠAN":682,"Ġfo":683,"age":684,"eunt":685,"Ġab":686,"Ġhow":687,"Ġgreat":688,"Ġhea":689,"Ġtime":690,"Ġgive":691,"way":692,"ĠYou":693,"He":694,"Ġcha":695,"Ġtake":696,"Ġmuch":697,"ĠV":698,"ag":699,"Ġmost":700,"ation":701,"Ġtw":702,"aster":703,"entle":704,"ful":705,"In":706,"Ġfriend":707,"ĠWhy":708,"AD":709,"to":710,"ESS":711,"INE":712,"Ġtell":713,"ree":714,"Ġday":715,"Ġwhere":716,"IST":717,"ust":718,"os":719,"Ġro":720,"Ġbet":721,"ap":722,"Ġmar":723,"ert":724,"EM":725,"Ġfl":726,"Ġgra":727,"Ġhear":728,"EC":729,"Ġbre":730,"Ġmen":731,"Ġle":732,"Of":733,"io":734,"Ġlea":735,"ign":736,"Ġblood":737,"ull":738,"Ġdes":739,"ress":740,"Be":741,"IT":742,"not":743,"Ġlook":744,"Ġart":745,"Ġword":746,"ither":747,"Ġnever":748,"Ġpart":749,"ĠMy":750,"li":751,"Ġother":752,"If":753,"UR":754,"Ġdeath":755,"ool":756,"ount":757,"Ġlife":758,"Ġwr":759,"ĠBut":760,"ase":761,"ment":762,"Ġson":763,"ORD":764,"Which":765,"Ġear":766,"igh":767,"My":768,"oul":769,"Ġgentle":770,"Ġser":771,"PH":772,"Ġfair":773,"Ġfear":774,"Ġdoth":775,"ĠNo":776,"Ġri":777,"ION":778,"Ġtr":779,"ace":780,"tle":781,"CA":782,"Ġsc":783,"ward":784,"Ġple":785,"de":786,"ite":787,"ĠIf":788,"FF":789,"old":790,"ans":791,"Ġown":792,"HA":793,"Ġany":794,"Ġcomm":795,"ces":796,"tis":797,"Ġwar":798,"Ġhonour":799,"ENE":800,"AND":801,"BER":802,"Ġsweet":803,"Ġad":804,"IM":805,"hing":806,"ee":807,"Ġcl":808,"Ġheaven":809,"ĠGod":810,"GE":811,"Ġmade":812,"IAN":813,"man":814,"Ġtrue":815,"Ġra":816,"ove":817,"What":818,"Ġcall":819,"Ġper":820,"nce":821,"ft":822,"land":823,"Ġnight":824,"rown":825,"Ġvery":826,"ĠSir":827,"KE":828,"per":829,"ĠPr":830,"llow":831,"sw":832,"ction":833,"LY":834,"augh":835,"Ġwh":836,"nder":837,"ĠHow":838,"able":839,"Ġhast":840,"AB":841,"Ġke":842,"ISTR":843,"ock":844,"Ġcannot":845,"QU":846,"You":847,"ber":848,"Ġapp":849,"ouse":850,"Ġpre":851,"ĠAND":852,"ving":853,"WN":854,"ĠOR":855,"ID":856,"les":857,"Ġwit":858,"CE":859,"Ġpray":860,"Ġworld":861,"Ġeyes":862,"Ġaf":863,"PE":864,"cc":865,"TER":866,"Ġbeen":867,"ĠCome":868,"Ġstr":869,"Ġaway":870,"TE":871,"ĠFOR":872,"orrow":873,"Ġbrother":874,"CENE":875,"Ġcour":876,"ĠBY":877,"IBUT":878,"ĠCOP":879,"ISTRIBUT":880,"RE":881,"Ġim":882,"Ġbear":883,"LA":884,"Ġdone":885,"When":886,"che":887,"ĠLord":888,"Who":889,"Ġdown":890,"Tis":891,"ud":892,"ife":893,"CH":894,"Ġnor":895,"Ġname":896,"ĠAy":897,"We":898,"ss":899,"Ġru":900,"Ġcomp":901,"Ġwom":902,"aint":903,"Ġway":904,"Ġstand":905,"Ġtwo":906,"Ġhead":907,"OM":908,"red":909,"Ġla":910,"So":911,"ĠIt":912,"Or":913,"Ġever":914,"IRST":915,"the":916,"Ġold":917,"Ġbefore":918,"ĠMar":919,"Ġcont":920,"Ġnoble":921,"Ġmight":922,"FIRST":923,"we":924,"Ġnew":925,"Ġleave":926,"uke":927,"Ġthought":928,"UCH":929,"DU":930,"ks":931,"Ġarm":932,"Ġlady":933,"This":934,"Ġpres":935,"Ġsl":936,"iss":937,"Ġthus":938,"ef":939,"Ġfool":940,"ĠThis":941,"for":942,"ple":943,"ENT":944,"ears":945,"ps":946,"ason":947,"ause":948,"ĠCa":949,"Ġlong":950,"atch":951,"irst":952,"less":953,"Ġcomes":954,"aughter":955,"me":956,"Ġbeg":957,"Ġcould":958,"ors":959,"Ġpur":960,"Ġbetter":961,"ach":962,"ought":963,"Ġsoul":964,"ne":965,"Ġrem":966,"come":967,"ang":968,"Ġhar":969,"atter":970,"PRO":971,"ERV":972,"eace":973,"ĠLet":974,"Ġ(":975,"Ġdead":976,"Ġshow":977,"SS":978,"hall":979,"Ġpoor":980,"Ġfind":981,"Ġhouse":982,"Ġinto":983,"ious":984,"PA":985,"ia":986,"Ġbest":987,"ower":988,"Is":989,"Ġking":990,"Ġkeep":991,"Ġbeing":992,"ĠDuke":993,"Ġmer":994,"Ġnothing":995,"Ġrep":996,"MER":997,"Exeunt":998,"Ġmany":999,"cy":1000,"ty":1001,"be":1002,"Ġboth":1003,"Ġend":1004,"ius":1005,"ew":1006,"Ġent":1007,"ĠWell":1008,"Ġlive":1009,"nto":1010,"akes":1011,"Ġserv":1012,"Re":1013,"ds":1014,"ied":1015,"Where":1016,"rance":1017,"Ġbra":1018,"OND":1019,"Ġgl":1020,"Ġevery":1021,"Ġput":1022,"Ġmyself":1023,"ĠExeunt":1024,"tend":1025,"ĠPRO":1026,"lf":1027,"Ġstill":1028,"ian":1029,"ins":1030,"eth":1031,"ĠThere":1032,"How":1033,"ier":1034,"uck":1035,"There":1036,"ĠNow":1037,"une":1038,"well":1039,"Ġmaster":1040,"hip":1041,"Exit":1042,"Ġfell":1043,"ittle":1044,"ĠExit":1045,"Ġfriends":1046,"cl":1047,"Thou":1048,"Ġsm":1049,"Ġwife":1050,"ark":1051,"ĠSo":1052,"vil":1053,"ESTER":1054,"By":1055,"mp":1056,"Ġset":1057,"ren":1058,"ORK":1059,"YR":1060,"ĠWe":1061,"race":1062,"men":1063,"Ġfollow":1064,"IES":1065,"Ġlie":1066,"rant":1067,"Ġtong":1068,"ĠTo":1069,"ĠIS":1070,"Ġnat":1071,"ile":1072,"ĠThou":1073,"bl":1074,"ons":1075,"ECOND":1076,"esar":1077,"Ġlittle":1078,"ĠEng":1079,"ac":1080,"ĠThat":1081,"ĠCOM":1082,"Ġdear":1083,"Ġthose":1084,"OST":1085,"SECOND":1086,"Ġfirst":1087,"Ġhour":1088,"Ġhold":1089,"int":1090,"NC":1091,"Ġsle":1092,"Ġdaughter":1093,"aid":1094,"its":1095,"uth":1096,"ield":1097,"Ġyoung":1098,"ĠNay":1099,".'":1100,"Ġdie":1101,"ĠGood":1102,"Ġlords":1103,"ĠHere":1104,"OTH":1105,"Ġconf":1106,"ET":1107,"USE":1108,"ONIC":1109,"SCENE":1110,"ret":1111,"ĠIs":1112,"Ġgone":1113,"alk":1114,"LUC":1115,"har":1116,"Ġgu":1117,"Ġansw":1118,"Ġchi":1119,"ĠRome":1120,"lt":1121,"AT":1122,"It":1123,"IAL":1124,"ĠELE":1125,"Ġcons":1126,"Ġeye":1127,"MERC":1128,"19":1129,"CTR":1130,"Than":1131,"ĠINC":1132,"ĠARE":1133,"ilt":1134,"ĠDISTRIBUT":1135,"LOUC":1136,"ĠCOPIES":1137,"ĠELECTR":1138,"MERCIAL":1139,"199":1140,"LOUCESTER":1141,"ĠELECTRONIC":1142,"Ġco":1143,"Ġagainst":1144,"iness":1145,"Ġrest":1146,"DES":1147,"Ġmind":1148,"Ġhimself":1149,"Ġthine":1150,"Ġel":1151,"Ġfort":1152,"Ġplace":1153,"DUKE":1154,"iv":1155,"Ġtra":1156,"HE":1157,"Ġfall":1158,"Ġworth":1159,"ens":1160,"Ġboy":1161,"esty":1162,"ĠDo":1163,"oud":1164,"get":1165,"Ġstay":1166,"istress":1167,"GO":1168,"LIA":1169,"led":1170,"ĠBe":1171,"Ġplay":1172,"QUE":1173,"Ġwoman":1174,"Ġface":1175,"ĠCaesar":1176,"QUEEN":1177,"Ġsword":1178,"Ġch":1179,"uty":1180,"Ġtri":1181,"ows":1182,"Ġgri":1183,"UN":1184,"Ġfe":1185,"Ġpass":1186,"Ġkind":1187,"Let":1188,"ĠThen":1189,"ison":1190,"Ġpeace":1191,"eds":1192,"BA":1193,"Ġnone":1194,"Ġwords":1195,"Ġcourt":1196,"irt":1197,"Ġtill":1198,"Ġmother":1199,"ĠGo":1200,"ANTON":1201,"Ġfull":1202,"Ġanswer":1203,"AM":1204,"Ġcur":1205,"Ġgi":1206,"Ġchar":1207,"ale":1208,"ect":1209,"Ġtongue":1210,"ring":1211,"Ġpe":1212,"BR":1213,"OWN":1214,"Ġturn":1215,"Ġafter":1216,"RY":1217,"ab":1218,"Ġres":1219,"Ġpresent":1220,"Ġelse":1221,"His":1222,"Your":1223,"ition":1224,"ult":1225,"Ġbring":1226,"SAL":1227,"Ġforth":1228,"ICK":1229,"Ġright":1230,"Ġimp":1231,"Ġunder":1232,"UM":1233,"Ġtre":1234,"Ġdra":1235,"ENRY":1236,"Ġhus":1237,"Ġthough":1238,"Que":1239,"pon":1240,"Ġche":1241,"ĠAn":1242,"Ġback":1243,"ĠFrance":1244,"Ġwhose":1245,"AFF":1246,"band":1247,"Ġcount":1248,"Ġmean":1249,"Queen":1250,"sand":1251,"ICH":1252,"asure":1253,"Ġbel":1254,"ĠHENRY":1255,"Ġspir":1256,"Ġwrong":1257,"Ġonce":1258,"Ġpri":1259,"ail":1260,"Ġchan":1261,"Ġcrown":1262,"Ġmeet":1263,"Ġseem":1264,"Ġmatter":1265,"Ġsaid":1266,"eech":1267,"ĠLORD":1268,"Ġsub":1269,"Ġchild":1270,"Ġbid":1271,"STAFF":1272,"Ham":1273,"ix":1274,"oh":1275,"Ġacc":1276,"ont":1277,"OT":1278,"illain":1279,"hile":1280,"ĠWhere":1281,"orse":1282,"Ġreason":1283,"Ġfaith":1284,"Ġletter":1285,"ried":1286,"Ġhope":1287,"Ġhum":1288,"ALSTAFF":1289,"IZ":1290,"air":1291,"ĠAnt":1292,"Ġret":1293,"ARG":1294,"ohn":1295,"Ġunto":1296,"Ġdre":1297,"Ġinde":1298,"Ġearth":1299,"They":1300,"Ġanother":1301,"bt":1302,"Ġfal":1303,"Ġpra":1304,"ph":1305,"ory":1306,"GLOUCESTER":1307,"ati":1308,"Ġthing":1309,"Ġthree":1310,"Ġhusband":1311,"Ġmo":1312,"Ġbod":1313,"Ġkill":1314,"ĠBy":1315,"selves":1316,"Ġtherefore":1317,"Ġindeed":1318,"St":1319,"Ġbes":1320,"Ġover":1321,"Ġthr":1322,"Ġplease":1323,"AY":1324,"Ġhome":1325,"Ġsold":1326,"Ġabout":1327,"Ġass":1328,"ister":1329,"ary":1330,"ets":1331,"ĠCl":1332,"Ġcou":1333,"ĠSt":1334,"IP":1335,"ORL":1336,"CLO":1337,"of":1338,"ene":1339,"Ġhence":1340,"Ġeven":1341,"Ġstre":1342,"Ġlight":1343,"ICE":1344,"ELLO":1345,"ICHARD":1346,"OB":1347,"ĠBr":1348,"Aside":1349,"Shall":1350,"ĠFor":1351,"Ġsleep":1352,"Ġcause":1353,"Ġhel":1354,"Ġhands":1355,"Ġtruth":1356,"Ġdou":1357,"Ġheard":1358,"ĠWho":1359,"Ġthousand":1360,"any":1361,"Ġhas":1362,"Ġdost":1363,"ertain":1364,"Ġwhom":1365,"Ġnature":1366,"Upon":1367,"ony":1368,"fect":1369,"Ġfalse":1370,"vy":1371,"Ġuse":1372,"Ġmadam":1373,"LES":1374,"Ġmon":1375,"ardon":1376,"FALSTAFF":1377,"ERM":1378,"THERS":1379,"pect":1380,"omet":1381,"ĠAl":1382,"Do":1383,"ETH":1384,"ms":1385,"imes":1386,"Ġjust":1387,"No":1388,"SERV":1389,"Ġsure":1390,"Ġvirt":1391,"ants":1392,"Ġthank":1393,"Ġdisc":1394,"cious":1395,"IOL":1396,"Ġbed":1397,"Ġvillain":1398,"Ġpower":1399,"Ġi":1400,"ĠII":1401,"day":1402,"Ġstate":1403,"ury":1404,"mb":1405,"Ġwithin":1406,"Ġ\"":1407,"ĠGrace":1408,"Ġval":1409,"Ġsent":1410,"Ġlaw":1411,"Ġcar":1412,"ches":1413,"Have":1414,"Ġmakes":1415,"Ġwind":1416,"Ġyouth":1417,"Ġnews":1418,"AG":1419,"Now":1420,"fort":1421,"ning":1422,"Ġshame":1423,"lou":1424,"Ġgold":1425,"UTUS":1426,"eal":1427,"ĠMaster":1428,"ute":1429,"ĠMAC":1430,"Ġbreak":1431,"Ġthings":1432,"Ġhither":1433,"vere":1434,"Ġmis":1435,"MAN":1436,"und":1437,"ĠQueen":1438,"Ġbus":1439,"Ġfar":1440,"bs":1441,"RIN":1442,"aj":1443,"Ġfight":1444,"ange":1445,"Ġbea":1446,"aud":1447,"use":1448,"Ġbu":1449,"ceive":1450,"ANIO":1451,"ILLIA":1452,"ILLIAM":1453,"LU":1454,"ade":1455,"ĠEngland":1456,"LIN":1457,"OUR":1458,"Thy":1459,"Ġere":1460,"Ġwel":1461,"IG":1462,"ouch":1463,"Ġcame":1464,"Ġhapp":1465,"ars":1466,"ieve":1467,"ROSAL":1468,"ild":1469,"yal":1470,"ĠWill":1471,"ECT":1472,"COM":1473,"From":1474,"Nor":1475,"Ġban":1476,"Ġgr":1477,"ĠCH":1478,"Then":1479,"Come":1480,"Will":1481,"ours":1482,"by":1483,"pose":1484,"Ġsince":1485,"Ġdoes":1486,"Ġshalt":1487,"ONG":1488,"PROV":1489,"BRUTUS":1490,"Ġhelp":1491,"Ġmaid":1492,"ions":1493,"ctor":1494,"Ġgentleman":1495,"Ġadv":1496,"dd":1497,"Ġgrace":1498,"Ġfellow":1499,"Pr":1500,"Ġill":1501,"Ġland":1502,"Ġye":1503,"ORT":1504,"ĠRICHARD":1505,"gether":1506,"'re":1507,"Ġrather":1508,"Our":1509,"vers":1510,"Ġgods":1511,"pl":1512,"ener":1513,"ĠShe":1514,"Ġsec":1515,"ĠYour":1516,"Ġbody":1517,".]":1518,"ĠJohn":1519,"Ġenough":1520,"ĠPrince":1521,"She":1522,"Ġsound":1523,"ork":1524,"ĠIn":1525,"ĠNot":1526,"Ġdevil":1527,"OTHELLO":1528,"PLE":1529,"com":1530,"Ġwithout":1531,"Ġenem":1532,"pen":1533,"ousin":1534,"IAGO":1535,"ATH":1536,"eed":1537,"Ġtears":1538,"Ġlast":1539,"ates":1540,"Ġinst":1541,"Ġattend":1542,"els":1543,"Al":1544,"Yet":1545,"Ġhang":1546,"Ġsun":1547,"Ġhonest":1548,"ajesty":1549,"ner":1550,"Ġbo":1551,"Ġlay":1552,"Ġgre":1553,"ĠEd":1554,"cle":1555,"ject":1556,"ues":1557,"MAR":1558,"een":1559,"Ġcare":1560,"ides":1561,"ISS":1562,"Ġwelcome":1563,"ily":1564,"Ġpers":1565,"Ġseen":1566,"Ġfault":1567,"ger":1568,"Ġstri":1569,"Ġsend":1570,"hold":1571,"CASS":1572,"ABLE":1573,"ween":1574,"iers":1575,"ten":1576,"urther":1577,"uff":1578,"ents":1579,"enter":1580,"Ġgrief":1581,"DEM":1582,"ike":1583,"Ġsaw":1584,"Ġcommand":1585,"CLOWN":1586,"Ġnear":1587,"Ġswear":1588,"now":1589,"Ġhigh":1590,"Ġpati":1591,"Ġmeans":1592,"Ġkiss":1593,"Ġmistress":1594,"Ġfire":1595,"Ġless":1596,"ĠAt":1597,"Ġyourself":1598,"OLK":1599,"Ġbreath":1600,"Ġstrong":1601,"ats":1602,"Ġwhy":1603,"ĠBE":1604,"Ġfortune":1605,"Ġspirit":1606,"Why":1607,"night":1608,"ĠTIM":1609,"ĠTHE":1610,"ains":1611,"ACT":1612,"Ġstrange":1613,"An":1614,"ITH":1615,"iz":1616,"Un":1617,"Ġpal":1618,"Ġjoy":1619,"ANTONY":1620,"hes":1621,"Hath":1622,"MEN":1623,"SH":1624,"Ġwish":1625,"ads":1626,"usic":1627,"Here":1628,"EMB":1629,"Ġremem":1630,"Ġweep":1631,"PRIN":1632,"peak":1633,"PATR":1634,"let":1635,"Ġsea":1636,"Ġgrow":1637,"INIUS":1638,"Ġlost":1639,"anger":1640,"aw":1641,"dom":1642,"ran":1643,"with":1644,"Ġyours":1645,"gainst":1646,"WICK":1647,"Ġonly":1648,"Ġspo":1649,"LEO":1650,"Ġreturn":1651,"Ġsomet":1652,"UTEN":1653,"Ġrun":1654,"PATRA":1655,"LEOPATRA":1656,"tw":1657,"ARWICK":1658,"oney":1659,"HAM":1660,"rink":1661,"Ġsick":1662,"ift":1663,"Ġprove":1664,"Ġarms":1665,"Ġhorse":1666,"Ġget":1667,"alth":1668,"Ġthrough":1669,"Ġpardon":1670,"Ġneed":1671,"ĠThey":1672,"iet":1673,"Ġstra":1674,"Ġdru":1675,"HIP":1676,"SE":1677,"mer":1678,"sed":1679,"Ġcountry":1680,"ken":1681,"Ġtalk":1682,"outh":1683,"Ġfree":1684,"ithe":1685,"Ġprom":1686,"ĠWILLIAM":1687,"VIA":1688,"XT":1689,"morrow":1690,"ople":1691,"Ġden":1692,"ĠSO":1693,"ĠHer":1694,"OLI":1695,"ERSON":1696,"ĠMAY":1697,"Ġroyal":1698,"like":1699,"IANA":1700,"Ġthoughts":1701,"ENTLE":1702,"uch":1703,"ster":1704,"Ġleft":1705,"GER":1706,"Ġsorrow":1707,"erv":1708,"Ġcousin":1709,"Ġtogether":1710,"ĠAs":1711,"Ġitself":1712,"ĠSERV":1713,"Ġvo":1714,"Ġhard":1715,"Ġwant":1716,"enry":1717,".,":1718,"DER":1719,"ĠOTHERS":1720,"hard":1721,"ĠSYR":1722,"ĠCass":1723,"ĠRE":1724,"ACUSE":1725,"HAT":1726,"rench":1727,"ĠSYRACUSE":1728,"CL":1729,"op":1730,"Ġfly":1731,"Ġsupp":1732,"Ġbusiness":1733,"Ġborn":1734,"Ġfound":1735,"IND":1736,"ĠNor":1737,"THIS":1738,"ĠYork":1739,"Ġalone":1740,"IGH":1741,"Ġsing":1742,"Ġfore":1743,"Ġfoul":1744,"ross":1745,"BERG":1746,"AS":1747,"GR":1748,"Ġtem":1749,"Ġsight":1750,"Ġwilt":1751,"ĠLONG":1752,"Ġsays":1753,"Ġseek":1754,"Ġjud":1755,"Ġhalf":1756,"Ġread":1757,"ESSEN":1758,"Ġcry":1759,"Ġgener":1760,"Ġlies":1761,"ROM":1762,"TEXT":1763,"Whose":1764,"ESSENGER":1765,"KES":1766,"av":1767,"oe":1768,"Ġlate":1769,"ARE":1770,"ARY":1771,"onder":1772,"form":1773,"arry":1774,"ĠWhen":1775,"Ġbloody":1776,"Ġservice":1777,"BAST":1778,"Ġdraw":1779,"ĠUS":1780,"Ġtold":1781,"ĠCOL":1782,"Ġcomfort":1783,"Ġproud":1784,"Ġdist":1785,"Ġbeauty":1786,"IGHT":1787,"PERSON":1788,"ls":1789,"Ġgave":1790,"ĠTHAT":1791,"ĠAS":1792,"ICT":1793,"ĠTIME":1794,".>":1795,"<<":1796,"All":1797,"DISTRIBUT":1798,"HIB":1799,"HINE":1800,"JECT":1801,"LLIN":1802,"Not":1803,"NLY":1804,"OIS":1805,"RARY":1806,"SHA":1807,"TIM":1808,"WITH":1809,"ĠUSE":1810,"Ġ199":1811,"ĠILLIN":1812,"ĠWORK":1813,"ĠWORL":1814,"ĠSUCH":1815,"ĠONLY":1816,"ĠMEMB":1817,"ENED":1818,"ĠBENED":1819,"ĠPERM":1820,"ĠGUTEN":1821,"ĠETEXT":1822,"ĠLIB":1823,"ĠDOWN":1824,"ĠNOT":1825,"ĠYOUR":1826,"LEGE":1827,"LOAD":1828,"ERSION":1829,"ERSHIP":1830,"ĠANY":1831,"ĠVERSION":1832,"ADABLE":1833,"ITED":1834,"IDED":1835,"PEARE":1836,"ĠCOPYR":1837,"ĠPROHIB":1838,"ĠPROJECT":1839,"ĠCOMMERCIAL":1840,"ĠCOMPLE":1841,"ĠINCLU":1842,"ĠDISTRIBUTED":1843,"ĠDISTRIBUTION":1844,"MERCIALLY":1845,"1993":1846,"ARGES":1847,"SERVICE":1848,"ĠMACHINE":1849,"COMMERCIALLY":1850,"ĠCHARGES":1851,"PROVIDED":1852,"ISSION":1853,"ithee":1854,"ĠREADABLE":1855,"KESPEARE":1856,"ĠUSED":1857,"ĠCOLLEGE":1858,"PERSONAL":1859,"ICTINE":1860,".>>":1861,"DISTRIBUTED":1862,"SHAKESPEARE":1863,"Ġ1990":1864,"ĠILLINOIS":1865,"ĠWORKS":1866,"ĠWORLD":1867,"ĠMEMBERSHIP":1868,"ĠBENEDICTINE":1869,"ĠPERMISSION":1870,"ĠGUTENBERG":1871,"ĠLIBRARY":1872,"ĠDOWNLOAD":1873,"ĠCOPYRIGHT":1874,"ĠPROHIBITED":1875,"ĠCOMPLETE":1876,"ĠINCLUDES":1877,"Ed":1878,"Ġaw":1879,"rest":1880,"ĠAntony":1881,"ROSALIND":1882,"most":1883,"Ġmet":1884,"Ġwear":1885,"Ġfare":1886,"Ġdoubt":1887,"PER":1888,"gs":1889,"lish":1890,"ures":1891,"Ġsister":1892,"Ġca":1893,"Ġreven":1894,"Are":1895,"RS":1896,"Ġbro":1897,"Ġprison":1898,"kes":1899,"Ġsame":1900,"Ġself":1901,"Ġexce":1902,"Ġsit":1903,"itor":1904,"Ġwork":1905,"cester":1906,"Ġpurpose":1907,"Ġpeople":1908,"TIMON":1909,"Her":1910,"IPH":1911,"Ġtend":1912,"Ġbri":1913,"Ġfield":1914,"Ġcra":1915,"urse":1916,"ĠLu":1917,"MAC":1918,"ial":1919,"rs":1920,"Ġoath":1921,"Ġpity":1922,"ĠFare":1923,"ounds":1924,"up":1925,"ĠSCENE":1926,"Ġdef":1927,"Ġhate":1928,"Ġdesire":1929,"BETH":1930,"Ġdep":1931,"Sh":1932,"ub":1933,"Ġcold":1934,"ĠTro":1935,"ĠHenry":1936,"ONT":1937,"Ġsuff":1938,"IMO":1939,"CLEOPATRA":1940,"WARD":1941,"Ġsil":1942,"oose":1943,"Ġquick":1944,"eon":1945,"xt":1946,"ĠPA":1947,"OLUS":1948,"IPHOLUS":1949,"Ġfit":1950,"Ġlear":1951,"ater":1952,"Ġknows":1953,"cius":1954,"MRS":1955,"Ġsad":1956,"Cl":1957,"YORK":1958,"Ġair":1959,"Ġdam":1960,"Ġcond":1961,"oman":1962,"ĠGENTLE":1963,"Ġlose":1964,"Ġdisp":1965,"Ġbeseech":1966,"Prince":1967,"ĠSERVANT":1968,"On":1969,"Ġtimes":1970,"Ġaff":1971,"Ġwin":1972,"ham":1973,"ĠAr":1974,"ĠAll":1975,"Ġsoon":1976,"cess":1977,"ĠHigh":1978,"Ġlooks":1979,"Lear":1980,"no":1981,"Ġint":1982,"Ġdream":1983,"HN":1984,"OHN":1985,"Ġage":1986,"Ġdare":1987,"ARUS":1988,"Ġfoot":1989,"TA":1990,"ling":1991,"Ġsk":1992,"Ġforg":1993,"ELEN":1994,"aim":1995,"bour":1996,"oor":1997,"vent":1998,"Ġdanger":1999,"ĠMajesty":2000,"ĠFrench":2001,"Ġvi":2002,"Ġcompany":2003,"gg":2004,"Ġsen":2005,"eter":2006,"Ġuncle":2007,"ments":2008,"AU":2009,"Ġwa":2010,"urd":2011,"Ġdel":2012,"ices":2013,"ĠKING":2014,"Ġtrust":2015,"Ġcommon":2016,"Ġcharge":2017,"Ġcoun":2018,"Ġsin":2019,"Ġdays":2020,"ABEL":2021,"COR":2022,"cause":2023,"ible":2024,"ted":2025,"Ġter":2026,"rew":2027,"Ġdrink":2028,"Ġeach":2029,"Ġund":2030,"az":2031,"ives":2032,"Ġmark":2033,"aff":2034,"wick":2035,"Ġmusic":2036,"Ġinf":2037,"Ġloves":2038,"Ġprince":2039,"Ġgeneral":2040,"At":2041,"Even":2042,"SIR":2043,"Ġlives":2044,"ITIZ":2045,"Ġserve":2046,"Ġworthy":2047,"ITIZEN":2048,"WARWICK":2049,"Ġob":2050,"Ġask":2051,"ROMIO":2052,"ĠPAGE":2053,"ĠHighness":2054,"King":2055,"Till":2056,"Ġwise":2057,"erve":2058,"Ġcho":2059,"utus":2060,"Ġsum":2061,"Ġfav":2062,"aking":2063,"Ġqueen":2064,"Ġgracious":2065,"Ġbelieve":2066,"BO":2067,"CR":2068,"LEN":2069,"arwick":2070,"ARM":2071,"Ġbetween":2072,"Ġgrave":2073,"ABELLA":2074,"adam":2075,"ief":2076,"Ġhappy":2077,"ford":2078,"ting":2079,"you":2080,"ĠGive":2081,"ichard":2082,"ITUS":2083,"loucester":2084,"ĠGENTLEMAN":2085,"gue":2086,"hal":2087,"Ġbat":2088,"Ġyears":2089,"Ġyield":2090,"Ġthyself":2091,"Ġholy":2092,"Ġbir":2093,"Ġfurther":2094,"Ġpar":2095,"ĠWith":2096,"ENIUS":2097,"Ġknown":2098,"ANTIPHOLUS":2099,"Ġwrit":2100,"Did":2101,"ship":2102,"Ġbound":2103,"estion":2104,"fection":2105,"Ġmarry":2106,"Ġothers":2107,"Ġwarrant":2108,"Ġbrave":2109,"More":2110,"ever":2111,"Ġbrought":2112,"Ġcontent":2113,"pr":2114,"rem":2115,"Ġhell":2116,"UCKING":2117,"unes":2118,"TRUCH":2119,"Ġgiven":2120,"UCKINGHAM":2121,"TRUCHIO":2122,"Ġbar":2123,"Ġcertain":2124,"oward":2125,"Ġdeep":2126,"ANUS":2127,"ADY":2128,"ĠPray":2129,"IOLANUS":2130,"Go":2131,"PAR":2132,"PAND":2133,"UFF":2134,"gar":2135,"Ġcut":2136,"ĠWarwick":2137,"Ġpleas":2138,"Ġvirtue":2139,"ĠEdward":2140,"UFFOLK":2141,"Ġac":2142,"Ġmin":2143,"ery":2144,"Ġpast":2145,"ONA":2146,"ĠYes":2147,"Though":2148,"BUR":2149,"Fal":2150,"FORD":2151,"Ġmoney":2152,"enty":2153,"Ġrec":2154,"Ġsovere":2155,"Ġpleasure":2156,"UNT":2157,"KATH":2158,"Some":2159,"iant":2160,"Ġact":2161,"Ġdiv":2162,"TRO":2163,"Would":2164,"Ġsake":2165,"Ġside":2166,"Ġpay":2167,"ush":2168,"Ġsave":2169,"Ġposs":2170,"Ġpoint":2171,"Ġreport":2172,"Like":2173,"Ġwhile":2174,"lly":2175,"Ġbeat":2176,"ĠCITIZEN":2177,"ĠEnter":2178,"Ġlead":2179,"ĠMarry":2180,"ek":2181,"Ġcor":2182,"ĠTOB":2183,"Ġhearts":2184,"Ġrich":2185,"OWNE":2186,"Ġpraise":2187,"ĠTOBY":2188,"HELEN":2189,"VAL":2190,"VOL":2191,"Ġbold":2192,"oof":2193,"ESAR":2194,"ĠJOHN":2195,"ĠEnglish":2196,"Ġperson":2197,"oint":2198,"Ġtouch":2199,"Ġmock":2200,"ots":2201,"Ġknave":2202,"ĠRichard":2203,"Ġten":2204,"Ġmouth":2205,"anc":2206,"stand":2207,"Ġinc":2208,"Ġdev":2209,"ĠGloucester":2210,"iece":2211,"ENTINE":2212,"DESDEM":2213,"Ġlearn":2214,"DESDEMONA":2215,"BEL":2216,"DROMIO":2217,"Ġsur":2218,"Ġste":2219,"Ġrequ":2220,"ESSID":2221,"ĠBrutus":2222,"Ġground":2223,"ESSIDA":2224,"Ġest":2225,"Ġmorn":2226,"Ġcol":2227,"Ġlov":2228,"LOW":2229,"inks":2230,"Ġheavy":2231,"CAL":2232,"that":2233,"Ġwis":2234,"Ġgall":2235,"alt":2236,"thing":2237,"Ġsuit":2238,"Ġmercy":2239,"MENENIUS":2240,"!'":2241,"IER":2242,"esh":2243,"Ġgar":2244,"edi":2245,"ĠMadam":2246,"hil":2247,"ĠLook":2248,"ALLOW":2249,"OLLES":2250,"Ġsons":2251,"BEROWNE":2252,"TEUS":2253,"Ġconfess":2254,"Ġsoldiers":2255,"Ġenemy":2256,"Ġtender":2257,"Was":2258,"cha":2259,"ior":2260,"Ġsign":2261,"Ġfour":2262,"ceed":2263,"ĠFR":2264,"Ġknight":2265,"PETRUCHIO":2266,"Rom":2267,"Ġpen":2268,"ries":2269,"amp":2270,"OLD":2271,"Ġblack":2272,"Ġbos":2273,"Ġeat":2274,"ESUS":2275,"Ġgoes":2276,"ILUS":2277,"PHESUS":2278,"Ġwomen":2279,"Ġfarewell":2280,"ec":2281,"ires":2282,"Ġwoo":2283,"Ġwatch":2284,"ask":2285,"IRD":2286,"Ġprof":2287,"BUS":2288,"ourish":2289,"ANCE":2290,"Ġfast":2291,"Ġvis":2292,"Ġring":2293,"Ġmerry":2294,"Ġsubject":2295,"CUS":2296,"fter":2297,"ready":2298,"vel":2299,"ated":2300,"Ġknew":2301,"THIRD":2302,"ally":2303,"Ġcourse":2304,"Therefore":2305,"Ġpatience":2306,".-":2307,"Ġcast":2308,"Ġhot":2309,"Ġshort":2310,"Ġthemselves":2311,"Were":2312,"Ġbosom":2313,"Tw":2314,"sue":2315,"Ġburn":2316,"Ġdro":2317,"Ġopen":2318,"edro":2319,"Ġnext":2320,"Ġbless":2321,"Ġchange":2322,"uous":2323,"irm":2324,"ĠEPHESUS":2325,"Ġquar":2326,"Ġvoice":2327,"VALENTINE":2328,"HOST":2329,"YM":2330,"over":2331,"Ġbase":2332,"Ġexp":2333,"oss":2334,"Ġdesp":2335,"ORTIA":2336,"CRESSIDA":2337,"PANDARUS":2338,"!-":2339,"Ġtown":2340,"ote":2341,"rice":2342,"Ġdog":2343,"gel":2344,"ethinks":2345,"Ġguard":2346,"ixt":2347,"CORIOLANUS":2348,"ges":2349,"ray":2350,"Ġweak":2351,"ĠHis":2352,"ANS":2353,"Ġtrump":2354,"Ġenter":2355,"Ġentreat":2356,"Ġbanish":2357,"Ġpalace":2358,"Ġsovereign":2359,"weet":2360,"Ġord":2361,"Ġlad":2362,"Ġtoward":2363,"rah":2364,"Ġdeed":2365,"Ġspeed":2366,"Ġneither":2367,"Ġatt":2368,"ĠYet":2369,"Ġworse":2370,"Ġtook":2371,"Ġears":2372,"Ġappear":2373,"Ġstraight":2374,"Ġhair":2375,"ENCE":2376,"aste":2377,"Ġhaste":2378,"atis":2379,"Ġbehold":2380,"urt":2381,"ague":2382,"ANTONIO":2383,"Ġvaliant":2384,",'":2385,"Give":2386,"bly":2387,"hed":2388,"Ġwall":2389,"Ġwret":2390,"ones":2391,"ortal":2392,"Ġexc":2393,"Ġgentlemen":2394,"PROTEUS":2395,"Ġremember":2396,"AP":2397,"Ġwalk":2398,"Ġplain":2399,"Ġprop":2400,"Ġprov":2401,"ILIA":2402,"Ġservant":2403,"Can":2404,"so":2405,"Ġta":2406,"Ġwater":2407,"ĠHave":2408,"ROKE":2409,"Ġdidst":2410,"Ġquestion":2411,"ĠIII":2412,"MACBETH":2413,"HELENA":2414,"GEN":2415,"Ġwoe":2416,"Ġduty":2417,"ĠCh":2418,"were":2419,"Ġliege":2420,"PRINCE":2421,"Ġcounsel":2422,"ARBUS":2423,"ISTOL":2424,"ully":2425,"Ġsomething":2426,"Ġdamn":2427,"PAROLLES":2428,"SUFFOLK":2429,"sh":2430,"ities":2431,"Ġoft":2432,"Ġunt":2433,"rows":2434,"aught":2435,"Ġsoldier":2436,"JA":2437,"rous":2438,"Ġwonder":2439,"Ġbad":2440,"Ġemb":2441,"riage":2442,"thy":2443,"ĠRe":2444,"ptain":2445,"Ġtraitor":2446,"Ġfeel":2447,"BUCKINGHAM":2448,"FE":2449,"NOR":2450,"Ġnote":2451,"ĠHa":2452,"ENOB":2453,"Ġcanst":2454,"feit":2455,"CAESAR":2456,"Ġappro":2457,"BURY":2458,"ENOBARBUS":2459,"CO":2460,"Ġopp":2461,"cept":2462,"Ġdoor":2463,"Ġneeds":2464,"Ġcoming":2465,"ĠHector":2466,"Ġtwenty":2467,"Ġharm":2468,"Ġglad":2469,"Ġjustice":2470,"CASSIUS":2471,"SHALLOW":2472,"ONTES":2473,"DWARD":2474,"May":2475,"mber":2476,"Ġwhe":2477,"Ġcity":2478,"ĠShall":2479,"cks":2480,"east":2481,"each":2482,"ĠEDWARD":2483,"Before":2484,"ANDO":2485,"ĠAlas":2486,"BOT":2487,"Bene":2488,"TITUS":2489,"bit":2490,"cent":2491,"hood":2492,"ip":2493,"my":2494,"ines":2495,"Ġcr":2496,"Ġcle":2497,"Ġlack":2498,"ĠEm":2499,"Ġsport":2500,"Ġspeech":2501,"umber":2502,"ondon":2503,"Ġflesh":2504,"IOLA":2505,"ĠFarewell":2506,"LADY":2507,"ona":2508,"ĠSEN":2509,"Ġdeli":2510,"ĠLady":2511,"Ġprithee":2512,"Ġoffend":2513,"Ġscorn":2514,"GELO":2515,"ĠRomeo":2516,"dden":2517,"Ġspoke":2518,"Ġcoward":2519,"eness":2520,"Ġgro":2521,"asc":2522,"ICINIUS":2523,"olk":2524,"Ġalmost":2525,"Ġalready":2526,"Ġstreng":2527,"Ġrevenge":2528,"MESSENGER":2529,"Pedro":2530,"PORTIA":2531,"TEN":2532,"cher":2533,"vol":2534,"Ġmove":2535,"ĠSc":2536,"ament":2537,"ĠDU":2538,"Ġhours":2539,"TROILUS":2540,"IFF":2541,"Kent":2542,"bert":2543,"Ġcap":2544,"ĠSpeak":2545,"ĠMistress":2546,"Ġkne":2547,"ched":2548,"ĠCassio":2549,"Should":2550,"SPER":2551,"con":2552,"Ġfra":2553,"Ġgrant":2554,"Ġmarried":2555,"audio":2556,"Ġsuffer":2557,"SPERO":2558,"Since":2559,"ught":2560,"rel":2561,"Ġlips":2562,"ĠPeace":2563,"Ġpluck":2564,"Ġclose":2565,"Ġwithal":2566,"Ġpresently":2567,"Ġfavour":2568,"HIL":2569,"bb":2570,"rist":2571,"Ġag":2572,"Ġlaugh":2573,"Ġpow":2574,"ashi":2575,"ERD":2576,"Ġred":2577,"These":2578,"umb":2579,"Ġstands":2580,"LUCIUS":2581,"ARGAR":2582,"Ġmoon":2583,"Against":2584,"Look":2585,"Leon":2586,"Ġaction":2587,"Ġbook":2588,"Ġbond":2589,"ites":2590,"Ġdu":2591,"Ġdark":2592,"Ġcreat":2593,"Ġheir":2594,"Ġforb":2595,"ĠAway":2596,"Ġstir":2597,"ĠOr":2598,"rust":2599,"Within":2600,"Ġpret":2601,"ainted":2602,"UNCE":2603,"ĠU":2604,"Ġmot":2605,"Ġbecome":2606,"Ġind":2607,"etch":2608,"oop":2609,"alm":2610,"Ġloss":2611,"Ġwars":2612,"Ġheavens":2613,"Ġdeny":2614,"OLIVIA":2615,"MAL":2616,"PISTOL":2617,"Ġlow":2618,"Ġpu":2619,"Ġbeast":2620,"rive":2621,"Ġvile":2622,"ends":2623,"Ġconst":2624,"Ġsworn":2625,"Ġjest":2626,"ISABELLA":2627,"cience":2628,"Beat":2629,"Ġtrou":2630,"Ġadd":2631,"Ġwhite":2632,"Ġprep":2633,"Ġgrie":2634,"Ġrespect":2635,"ĠClaudio":2636,"Ġmorning":2637,"Ġstrength":2638,"nk":2639,"ised":2640,"Ġhide":2641,"LEONTES":2642,"TRAM":2643,"Claud":2644,"Ġbattle":2645,"Com":2646,"Jul":2647,"llent":2648,"Ġpale":2649,"ash":2650,"ĠSay":2651,"Ġsudden":2652,"empt":2653,"Ġscar":2654,"PEED":2655,"Ġslain":2656,"ĠDUKE":2657,"ARGARET":2658,"mit":2659,"Ġwild":2660,"Ġfeast":2661,"ird":2662,"REY":2663,"Ġslave":2664,"VIOLA":2665,"oin":2666,"ses":2667,"Ġid":2668,"Ġmod":2669,"Ġinter":2670,"Ġform":2671,"OLPH":2672,"ELIA":2673,"Ġtruly":2674,"Ġspeaks":2675,"Ġoffice":2676,"ARDOLPH":2677,"Ġsense":2678,"gment":2679,"mand":2680,"pes":2681,"Ġmess":2682,"Ġpap":2683,"ceiv":2684,"ution":2685,"ĠHel":2686,"Ġreg":2687,"roke":2688,"aken":2689,"Ġext":2690,"ĠTroy":2691,"CON":2692,"eem":2693,"hind":2694,"Ġty":2695,"ĠIV":2696,"Ġem":2697,"ĠWould":2698,"Ġsever":2699,"ENTIO":2700,"Ġkingdom":2701,"bey":2702,"Ġunderstand":2703,"ORLANDO":2704,"your":2705,"Ġfat":2706,"Ġpit":2707,"Ġthanks":2708,"Ġdisg":2709,"OMPE":2710,"Ġpriv":2711,"Ġletters":2712,"BASTIAN":2713,"BY":2714,"SICINIUS":2715,"ULIA":2716,"cri":2717,"ron":2718,"Ġmount":2719,"Ġdire":2720,"Ġhaving":2721,"ĠThy":2722,"Ġforce":2723,"Ġready":2724,"Their":2725,"Ġabs":2726,"Ġrage":2727,"Ġbegin":2728,"ATOR":2729,"OLDIER":2730,"OMPEY":2731,"Glou":2732,"LOR":2733,"SPEED":2734,"ffect":2735,"ler":2736,"Ġdish":2737,"arum":2738,"Ġhu":2739,"Ġgot":2740,"ANGELO":2741,"Ġchamber":2742,"UCHESS":2743,"Ġlordship":2744,"Ġinstru":2745,"IMOGEN":2746,"KATHER":2747,"atisf":2748,"ETR":2749,"Had":2750,"NE":2751,"Wh":2752,"will":2753,"Ġmal":2754,"rer":2755,"have":2756,"Ġliving":2757,"Ġloving":2758,"asters":2759,"antage":2760,"Ġabove":2761,"Ġflow":2762,"Ġwitness":2763,"Ġspirits":2764,"Ġchildren":2765,"undred":2766,"Ġdeliver":2767,"ashion":2768,"ETRIUS":2769,"Hor":2770,"Make":2771,"One":2772,"Ġve":2773,"rey":2774,"Ġbit":2775,"ern":2776,"Ġfam":2777,"Ġdin":2778,"ench":2779,"Ġoften":2780,"als":2781,"raw":2782,"ĠEL":2783,"Ġang":2784,"ADO":2785,"Must":2786,"OP":2787,"br":2788,"Ġsho":2789,"Ġsigh":2790,"Ġsoft":2791,"Ġdeeds":2792,"ĠJul":2793,"Ġstrike":2794,"hilst":2795,"ĠFRANCE":2796,"Good":2797,"gl":2798,"Ġmortal":2799,"Ġlim":2800,"riar":2801,"Ġstru":2802,"Ġsteal":2803,"ĠMac":2804,"Ġreb":2805,"ĠFORD":2806,"ieu":2807,"ortune":2808,"ations":2809,"LAUNCE":2810,"PROSPERO":2811,"BOY":2812,"BROKE":2813,"CESS":2814,"VIUS":2815,"ying":2816,"Ġtit":2817,"Ġba":2818,"Ġfill":2819,"Ġfive":2820,"Ġcase":2821,"aris":2822,"Ġeither":2823,"Ġrel":2824,"ARENCE":2825,"astard":2826,"OLING":2827,"Ġwhole":2828,"ABETH":2829,"Ġconscience":2830,"Ġchance":2831,"IZABETH":2832,"Ġdread":2833,"FEU":2834,"OLINGBROKE":2835,"chan":2836,"Ġmorrow":2837,"Ġwound":2838,"ited":2839,"imon":2840,"ENS":2841,"ĠDid":2842,"othing":2843,"Ġmarriage":2844,"LUCIO":2845,"UNTESS":2846,"ĠELIZABETH":2847,"ging":2848,"Ġmist":2849,"idd":2850,"ĠHam":2851,"PAGE":2852,"Ġpassion":2853,"Ġresol":2854,"CASSIO":2855,"DIO":2856,"Sc":2857,"under":2858,"Ġsim":2859,"inces":2860,"Ġfing":2861,"arch":2862,"Ġbeard":2863,"Ġbehind":2864,"asy":2865,"ram":2866,"ĠMost":2867,"urs":2868,"EST":2869,"ardin":2870,"resh":2871,"fere":2872,"ANTUS":2873,"EMANTUS":2874,"Ġbreast":2875,"ignior":2876,"claim":2877,"Ġcheer":2878,"Ġsecond":2879,"Ġenemies":2880,"CELIA":2881,"SIL":2882,"Take":2883,"more":2884,"ny":2885,"sp":2886,"Ġcross":2887,"Ġop":2888,"enge":2889,"Ġissue":2890,"ĠCan":2891,"ĠOur":2892,"ALL":2893,"Ġwouldst":2894,"umph":2895,"Ġran":2896,"Ġpoison":2897,"Ġexec":2898,"Ġble":2899,"Ġlust":2900,"Ġobs":2901,"arl":2902,"ancy":2903,"ety":2904,"lex":2905,"Ġeffect":2906,"ĠAre":2907,"vern":2908,"Ġshad":2909,"ument":2910,"EMILIA":2911,"Ġchur":2912,"Ġgives":2913,"Ġtreason":2914,"AGU":2915,"Con":2916,"LAND":2917,"Ġhost":2918,"Ġgift":2919,"ider":2920,"ĠMUR":2921,"Ġourselves":2922,"Ġoffer":2923,"peror":2924,"Ġmighty":2925,"ĠTherefore":2926,"BELINE":2927,"YMBELINE":2928,"ĠChrist":2929,"ĠHamlet":2930,"Hot":2931,"JULIA":2932,"VANS":2933,"him":2934,"Ġut":2935,"Ġshi":2936,"Ġhundred":2937,"Ġpost":2938,"alb":2939,"ĠCount":2940,"ural":2941,"Ġlion":2942,"ĠPl":2943,"ĠPom":2944,"ils":2945,"emn":2946,"ĠThese":2947,"Ġalong":2948,"Ġaffection":2949,"force":2950,"Ġsouls":2951,"Ġfortunes":2952,"Ġacqu":2953,"bury":2954,"oly":2955,"ises":2956,"ĠSweet":2957,"Ġrevere":2958,"ĠPer":2959,"ĠRoman":2960,"ĠKate":2961,"BERTRAM":2962,"Ġheads":2963,"AV":2964,"HUM":2965,"aith":2966,"ners":2967,"Ġtale":2968,"Ġfashion":2969,"Ġcru":2970,"leep":2971,"eding":2972,"ĠSha":2973,"right":2974,"Ġkings":2975,"ONE":2976,"ĠDe":2977,"elcome":2978,"Ġsafe":2979,"Ġparts":2980,"Ġsmall":2981,"BASS":2982,"Ġsecret":2983,"PRINCESS":2984,"Ġpretty":2985,"IEL":2986,"POMPEY":2987,"fully":2988,"su":2989,"Ġsatisf":2990,"Ġbow":2991,"Ġhealth":2992,"set":2993,"ĠTru":2994,"Ġforget":2995,"ĠHarry":2996,"Ġnoise":2997,"Ġpride":2998,"Ġworst":2999,"Ġworship":3000,"Ġwrite":3001,"Ġlonger":3002,"Ġpaper":3003,"Qu":3004,"].":3005,"Ġtent":3006,"Ġmir":3007,"Ġfetch":3008,"anch":3009,"ĠTell":3010,"ĠAh":3011,"INA":3012,"ĠPro":3013,"Ġvow":3014,"Ġconqu":3015,"aunt":3016,"Ġchoose":3017,"Ġseems":3018,"ealous":3019,"ARMADO":3020,"APEMANTUS":3021,"eep":3022,"iam":3023,"kind":3024,"Ġer":3025,"Ġign":3026,"Ġmurd":3027,"Ġocc":3028,"Ġhurt":3029,"staff":3030,"Ġgates":3031,"Ġinv":3032,"ĠSOLDIER":3033,"cted":3034,"ages":3035,"Ġbears":3036,"Ġpresence":3037,"Ġbuy":3038,"Ġpatient":3039,"BASTARD":3040,"Ġpossess":3041,"COUNTESS":3042,"ĠSENATOR":3043,"aves":3044,"oke":3045,"Ġteach":3046,"Ġdied":3047,"ĠMay":3048,"ĠMARGARET":3049,"iew":3050,"Ġarg":3051,"ago":3052,"twas":3053,"SEBASTIAN":3054,"Ġawhile":3055,"Ġforgot":3056,"Ġbirth":3057,"Ġorder":3058,"Ġladies":3059,"Ġtrouble":3060,"BOLINGBROKE":3061,"DUCHESS":3062,"Fl":3063,"ude":3064,"Ġap":3065,"Ġdrown":3066,"Ġthrow":3067,"STING":3068,"hens":3069,"ĠRos":3070,"ĠANT":3071,"Ġmarch":3072,"ITES":3073,"LAFEU":3074,"ledge":3075,"SEY":3076,"Ġbrief":3077,"Ġdangerous":3078,"God":3079,"Out":3080,"Such":3081,"via":3082,"Ġsn":3083,"Ġsor":3084,"Ġdull":3085,"ĠTake":3086,"Ġstud":3087,"ANO":3088,"ARINE":3089,"ĠFal":3090,"rupt":3091,"ilus":3092,"Ġgod":3093,"arence":3094,"Ġproceed":3095,"ARDIN":3096,"Ġleast":3097,"Ġconsent":3098,"Ġrememb":3099,"Edg":3100,"Ġexcellent":3101,"ĠLucius":3102,"VOLIO":3103,"ardinal":3104,"STINGS":3105,"app":3106,"but":3107,"born":3108,"nown":3109,"Ġmatch":3110,"Ġfine":3111,"ĠInd":3112,"eng":3113,"ĠTimon":3114,"Ġforsw":3115,"asion":3116,"Ġreceive":3117,"Ġsole":3118,"though":3119,"Ġsucc":3120,"iff":3121,"ify":3122,"Ġhonourable":3123,"Ġlabour":3124,"Ġfools":3125,"OSTHUM":3126,"Ġcurse":3127,"Ġvalour":3128,"Ġpromise":3129,"OSTHUMUS":3130,"GU":3131,"Nurse":3132,"his":3133,"wor":3134,"Ġtor":3135,"head":3136,"Ġyear":3137,"ility":3138,"THUM":3139,"Ġsaf":3140,"ISBURY":3141,"Ġcommend":3142,"BERLAND":3143,"Ġfoolish":3144,"Ġvirtuous":3145,"ORTENS":3146,"Ġjudge":3147,"Ġjudgment":3148,"Ġwisdom":3149,"THUMBERLAND":3150,"ca":3151,"min":3152,"ual":3153,"ze":3154,"Ġwed":3155,"Ġemp":3156,"ellow":3157,"Thus":3158,"ILLO":3159,"Being":3160,"Pol":3161,"ax":3162,"mon":3163,"Ġwon":3164,"Ġwood":3165,"ĠSaint":3166,"ĠCap":3167,"eaven":3168,"iles":3169,"Ġgoing":3170,"icul":3171,"Ġoffence":3172,"osition":3173,"LYSS":3174,"Ġkept":3175,"Ġfaults":3176,"DEMETRIUS":3177,"Ġquarrel":3178,"LYSSES":3179,"LORD":3180,"OW":3181,"Sir":3182,"king":3183,"pher":3184,"Ġver":3185,"Ġhorn":3186,"ingly":3187,"ĠTit":3188,"ĠSil":3189,"ĠOf":3190,"Ġknock":3191,"OLY":3192,"OLSEY":3193,"Ġqual":3194,"Ġflatter":3195,"Ġperceive":3196,"comes":3197,"Ġdepart":3198,"Ġviol":3199,"IE":3200,"uri":3201,"inion":3202,"llo":3203,"Ġfresh":3204,"ĠTalb":3205,"ales":3206,"ĠSignior":3207,"ĠMAR":3208,"Ġneigh":3209,"ume":3210,"pey":3211,"CAM":3212,"Ġanything":3213,"Ġshows":3214,"THERSITES":3215,"Edm":3216,"EK":3217,"Pro":3218,"gin":3219,"ged":3220,"phe":3221,"twere":3222,"Ġwent":3223,"Ġshar":3224,"ĠPage":3225,"ĠFl":3226,"host":3227,"Ġvain":3228,"Ġamong":3229,"Ġblind":3230,"ADR":3231,"ECHE":3232,"Ġtroth":3233,"Ġentertain":3234,"Ġbitter":3235,"ECHEEK":3236,"CK":3237,"YLO":3238,"can":3239,"ered":3240,"Ġwast":3241,"onour":3242,"arge":3243,"Ġpains":3244,"ature":3245,"chief":3246,"ANNE":3247,"Ġshake":3248,"ease":3249,"Ġseal":3250,"Ġview":3251,"Ġamb":3252,"Ġfearful":3253,"Ġhumour":3254,"ĠClarence":3255,"Ġquickly":3256,"ĠEmperor":3257,"Ġtitle":3258,"Ġcruel":3259,"ĠTalbot":3260,"YLOCK":3261,"Mar":3262,"dge":3263,"eks":3264,"zen":3265,"Ġtaken":3266,"Ġay":3267,"Ġpi":3268,"ato":3269,"Ġforward":3270,"ided":3271,"ĠSee":3272,"ĠMESSENGER":3273,"ĠDes":3274,"Ġround":3275,"Ġjealous":3276,"Ġquiet":3277,"TRANIO":3278,"Ġenc":3279,"Ġpract":3280,"Unless":3281,"Ġsummer":3282,"Ġangry":3283,"cil":3284,"Ġwid":3285,"Ġbastard":3286,"Ġfier":3287,"Ġda":3288,"Ġpain":3289,"stance":3290,"Ġele":3291,"ames":3292,"ESCAL":3293,"ĠGree":3294,"ĠEarl":3295,"ĠLove":3296,"Ġnob":3297,"Ġanon":3298,"hose":3299,"Ġblow":3300,"Ġprot":3301,"Ġwhore":3302,"AGUECHEEK":3303,"ORTENSIO":3304,"ESCALUS":3305,"AIN":3306,"CYMBELINE":3307,"Doth":3308,"EVANS":3309,"See":3310,"Tell":3311,"VIR":3312,"gare":3313,"ror":3314,"yb":3315,"Ġtakes":3316,"Ġmasters":3317,"onio":3318,"essed":3319,"ays":3320,"ĠSh":3321,"Ġherself":3322,"ĠFaith":3323,"ĠYea":3324,"Ġjew":3325,"Ġoffic":3326,"IDIUS":3327,"ucking":3328,"airs":3329,"Ġgolden":3330,"CLIFF":3331,"MALVOLIO":3332,"ĠPompey":3333,"Ġsorry":3334,"MOTH":3335,"NON":3336,"PUC":3337,"Ġsus":3338,"Ġsort":3339,"itors":3340,"ĠIago":3341,"ley":3342,"Ġmeasure":3343,"illes":3344,"ĠThan":3345,"ĠGLOUCESTER":3346,"Ġproof":3347,"ĠJew":3348,"Ġperform":3349,"Ġlaid":3350,"Ġarmy":3351,"SERVANT":3352,"ĠCassius":3353,"ĠHelen":3354,"Ġdinner":3355,"HERM":3356,"OUCH":3357,"TIST":3358,"loy":3359,"oun":3360,"read":3361,"enger":3362,"vey":3363,"Ġintend":3364,"Ġevil":3365,"ĠCor":3366,"ĠChar":3367,"ĠCardinal":3368,"Ġstar":3369,"rac":3370,"urst":3371,"STONE":3372,"Ġours":3373,"Ġgrand":3374,"Ġcalls":3375,"QUICK":3376,"Ġcounter":3377,"Ġcarry":3378,"Ġgreen":3379,"Whom":3380,"ĠFalstaff":3381,"garet":3382,"OUCHSTONE":3383,"TISTA":3384,"QUICKLY":3385,"Bet":3386,"COST":3387,"ETER":3388,"Into":3389,"MED":3390,"beth":3391,"gy":3392,"mn":3393,"ov":3394,"ollow":3395,"Ġsland":3396,"Ġwhi":3397,"Ġfrown":3398,"att":3399,"Ġinno":3400,"ĠAd":3401,"ĠSIR":3402,"ĠSuff":3403,"ords":3404,"Ġshape":3405,"ĠFortune":3406,"ilty":3407,"Ġconcl":3408,"Ġblame":3409,"Ġthence":3410,"ĠThus":3411,"Ġalive":3412,"Ġdouble":3413,"Ġdrum":3414,"KATHERINA":3415,"COSTARD":3416,"MEDES":3417,"UL":3418,"joy":3419,"Ġtry":3420,"Ġmut":3421,"Ġfled":3422,"Ġcred":3423,"rain":3424,"ĠOne":3425,"ĠBen":3426,"ARIUS":3427,"ĠGentle":3428,"THE":3429,"unning":3430,"Ġprayers":3431,"Ġbrain":3432,"Ġglory":3433,"Ġfeed":3434,"phin":3435,"Ġtemp":3436,"Ġbroke":3437,"Ġignor":3438,"FOLK":3439,"Most":3440,"ding":3441,"rate":3442,"Ġwert":3443,"Ġdest":3444,"Ġstood":3445,"Ġstop":3446,"ĠMoor":3447,"Ġlibert":3448,"UST":3449,"Ġdec":3450,"ĠLUC":3451,"Ġconce":3452,"Ġswift":3453,"ELL":3454,"Ġplague":3455,"Ġjoin":3456,"ISH":3457,"ĠJove":3458,"IANO":3459,"Ġinstant":3460,"Ġprisoner":3461,"Ġdelight":3462,"Ġwalls":3463,"Say":3464,"ey":3465,"Ġmethinks":3466,"Ġwine":3467,"isp":3468,"ished":3469,"erc":3470,"Ġinj":3471,"Ġins":3472,"Ġwealth":3473,"Ġstor":3474,"ENES":3475,"ĠParis":3476,"iful":3477,"Ġmanner":3478,"ALBOT":3479,"Ġsav":3480,"cient":3481,"Ġhearing":3482,"Ġpurse":3483,"Ġfellows":3484,"CLARENCE":3485,"Ġmotion":3486,"Ġsuccess":3487,"NIA":3488,"ians":3489,"mia":3490,"Ġsch":3491,"itiz":3492,"Ġobey":3493,"Ġpiece":3494,"ĠCall":3495,"Ġrasc":3496,"Ġhadst":3497,"DUFF":3498,"Ġbeggar":3499,"Ġdrawn":3500,"Ġhumble":3501,"Ġmonth":3502,"MARIA":3503,"ĠTroilus":3504,"Ġrequest":3505,"gelo":3506,"Ġpubl":3507,"BOYET":3508,"Scene":3509,"ADRIANA":3510,"uckingham":3511,"ĠSuffolk":3512,"EX":3513,"SAND":3514,"WOLSEY":3515,"ker":3516,"mble":3517,"vo":3518,"Ġsix":3519,"Ġwounds":3520,"Ġbare":3521,"Ġbreat":3522,"Ġcir":3523,"Ġthro":3524,"Ġgross":3525,"chilles":3526,"ĠAR":3527,"Ġdemand":3528,"Ġshepher":3529,"IACH":3530,"Ġhonesty":3531,"ERSET":3532,"icked":3533,"ĠVen":3534,"ĠVal":3535,"OMERSET":3536,"ĠMarcius":3537,"ĠMargaret":3538,"Ġcontin":3539,"Ġbestow":3540,"Reg":3541,"uthor":3542,"ATIANO":3543,"ĠAntonio":3544,"ĠStand":3545,"Ġstreet":3546,"SHYLOCK":3547,"ARMIAN":3548,"Ġcolour":3549,"Ġtrumpet":3550,"Ġscarce":3551,"Ġseveral":3552,"Ġstruck":3553,"ĠMacbeth":3554,"IACHIMO":3555,"Speak":3556,"ULYSSES":3557,"broke":3558,"iest":3559,"sper":3560,"Ġfi":3561,"Ġcre":3562,"Ġcatch":3563,"edy":3564,"Ġur":3565,"ters":3566,"Ġliv":3567,"ISANIO":3568,"Ġfolly":3569,"ĠCaptain":3570,"Ġtrain":3571,"ĠAngelo":3572,"ĠWilliam":3573,"Ġbright":3574,"ference":3575,"Ġopinion":3576,"Ġchurch":3577,"ĠMURDER":3578,"Flourish":3579,"POSTHUMUS":3580,"go":3581,"Ġtear":3582,"Ġbot":3583,"Ġpure":3584,"Ġheld":3585,"ane":3586,"Ġbeha":3587,"Ġeld":3588,"ĠCom":3589,"ĠMont":3590,"Ġaside":3591,"ĠBel":3592,"Ġdeare":3593,"usion":3594,"ĠPo":3595,"ELLEN":3596,"Ġunf":3597,"Ġgreater":3598,"ways":3599,"Ġchast":3600,"Because":3601,"Ġprecious":3602,"CLOTEN":3603,"ĠBrit":3604,"LUELLEN":3605,"Ġwait":3606,"CONST":3607,"Ġsharp":3608,"Ar":3609,"Friar":3610,"London":3611,"mbl":3612,"Ġaught":3613,"ounter":3614,"Ġbones":3615,"Ġlist":3616,"Ġthither":3617,"Ġpet":3618,"vell":3619,"Ġgent":3620,"entine":3621,"ĠHast":3622,"Ġref":3623,"ĠBuckingham":3624,"OLO":3625,"Ġblessed":3626,"ical":3627,"Ġuns":3628,"Ġrogue":3629,"Ġleg":3630,"Ġdeserve":3631,"Ġtrans":3632,"Ġwits":3633,"ĠMark":3634,"ission":3635,"Ġmonst":3636,"Ġdefend":3637,"John":3638,"SO":3639,"TOUCHSTONE":3640,"VER":3641,"eg":3642,"iol":3643,"woman":3644,"Ġes":3645,"Ġmid":3646,"orous":3647,"Ġcamp":3648,"Ġcunning":3649,"Ġlend":3650,"ĠOn":3651,"ĠRo":3652,"ĠJack":3653,"Ġgreatness":3654,"ADE":3655,"Ġboys":3656,"Ġcheek":3657,"Ġcondition":3658,"Ġdispatch":3659,"ancaster":3660,"Ġwretched":3661,"JAQU":3662,"BASSANIO":3663,"ISHOP":3664,"FR":3665,"IGO":3666,"ĠQUEEN":3667,"Ġtaste":3668,"Ġwicked":3669,"reed":3670,"Ġloud":3671,"Ġbecause":3672,"lease":3673,"Ġmere":3674,"ident":3675,"INC":3676,"ĠLancaster":3677,"Ġfaire":3678,"Ġvan":3679,"Ġgovern":3680,"auphin":3681,"hys":3682,"ACHIL":3683,"Without":3684,"Ġwherefore":3685,"Ġpriest":3686,"ROSALINE":3687,"ize":3688,"ĠHero":3689,"Ġborne":3690,"Ġobedi":3691,"Ġexcuse":3692,"Ġshadow":3693,"ĠRosal":3694,"ACHILLES":3695,"Ben":3696,"Lest":3697,"MOR":3698,"OC":3699,"afe":3700,"heart":3701,"Ġthird":3702,"Ġmel":3703,"ERIUS":3704,"ĠHear":3705,"ilia":3706,"Ġgoodly":3707,"Ġknowledge":3708,"Ġsirrah":3709,"UTOLY":3710,"PHANO":3711,"Ġfears":3712,"HASTINGS":3713,"BERT":3714,"Ġclaim":3715,"IDERIUS":3716,"Ġrude":3717,"Ġtongues":3718,"ĠBefore":3719,"Ġimport":3720,"UMIO":3721,"Ġgreet":3722,"Ġprincely":3723,"Ġforbid":3724,"Ġsafety":3725,"CAMILLO":3726,"itizens":3727,"UTOLYCUS":3728,"La":3729,"Nay":3730,"ts":3731,"ua":3732,"vail":3733,"Ġauthor":3734,"Ġdies":3735,"Ġnurse":3736,"Ġpol":3737,"Ġheels":3738,"cend":3739,"Ġyourselves":3740,"ĠHark":3741,"ĠBl":3742,"ARON":3743,"ĠLeon":3744,"ĠDauphin":3745,"STE":3746,"icious":3747,"Ġprinces":3748,"Ġrough":3749,"Ġquite":3750,"ustom":3751,"Ġrain":3752,"perate":3753,"Ġremain":3754,"Ġendure":3755,"Ġwrongs":3756,"ECTOR":3757,"Ġvisit":3758,"Ġdrop":3759,"Ġembrace":3760,"NORTHUMBERLAND":3761,"Ġclear":3762,"ronic":3763,"chance":3764,"ĠIndeed":3765,"Ġwidow":3766,"ĠMURDERER":3767,"HORTENSIO":3768,"after":3769,"cul":3770,"dem":3771,"iance":3772,"mong":3773,"rim":3774,"son":3775,"wise":3776,"Ġir":3777,"Ġben":3778,"ora":3779,"esy":3780,"ester":3781,"Ġlarge":3782,"Ġpun":3783,"Ġbend":3784,"Ġmem":3785,"ĠCon":3786,"Ġancient":3787,"Ġfail":3788,"Ġmanners":3789,"Ġdism":3790,"Ġwrath":3791,"Ġcompl":3792,"Reads":3793,"Ġsmile":3794,"Ġholds":3795,"Ġcheeks":3796,"Ġdrunk":3797,"Ġforest":3798,"Ġprivate":3799,"ĠANTON":3800,"Ġshepherd":3801,"hysic":3802,"Ab":3803,"Pl":3804,"cus":3805,"pro":3806,"Ġmour":3807,"orge":3808,"Ġfru":3809,"Ġfig":3810,"Ġdue":3811,"Ġcorn":3812,"Ġowe":3813,"Ġhor":3814,"utation":3815,"Ġequ":3816,"ĠAchilles":3817,"Ġweap":3818,"Ġweary":3819,"ĠSom":3820,"ĠSome":3821,"ract":3822,"Ġdeg":3823,"Ġdebt":3824,"ardol":3825,"ĠJUST":3826,"Ġfoes":3827,"Ġimm":3828,"ĠStay":3829,"Ġadvantage":3830,"LENDER":3831,"ĠChristian":3832,"ancholy":3833,"ardolph":3834,"Cap":3835,"Des":3836,"FLUELLEN":3837,"Mer":3838,"PTISTA":3839,"Under":3840,"ULIN":3841,"eat":3842,"Ġsong":3843,"Ġmajesty":3844,"Ġbount":3845,"erset":3846,"Ġlest":3847,"Ġmend":3848,"edick":3849,"Ġformer":3850,"Ġrevol":3851,"Ġdeal":3852,"ARLES":3853,"Ġspend":3854,"Ġwash":3855,"Ġshouldst":3856,"Ġexpect":3857,"EMIO":3858,"acle":3859,"BAPTISTA":3860,"COMINIUS":3861,"MARCUS":3862,"Ġgrows":3863,"GRATIANO":3864,"Ġterms":3865,"ARDINAL":3866,"Ġliberty":3867,"ULINA":3868,"'-":3869,"Unto":3870,"Well":3871,"XENES":3872,"ich":3873,"oes":3874,"Ġbrow":3875,"Ġdwell":3876,"Ġce":3877,"Ġthreat":3878,"Ġthrice":3879,"Ġheat":3880,"anio":3881,"ances":3882,"irgin":3883,"ĠWelcome":3884,"idge":3885,"ĠCam":3886,"Ġstain":3887,"ĠBol":3888,"ander":3889,"ĠDost":3890,"Ġneck":3891,"Ġnecess":3892,"THUR":3893,"Ġconj":3894,"Ġusur":3895,"EMNON":3896,"Ġleaves":3897,"Ġdesires":3898,"ĠPrithee":3899,"ocks":3900,"Ġbrothers":3901,"AMEMNON":3902,"ĠAttend":3903,"OLIXENES":3904,"Ġsteel":3905,"chant":3906,"Ġmalice":3907,"ĠSomerset":3908,"ex":3909,"oot":3910,"pos":3911,"there":3912,"Ġfie":3913,"Ġfaint":3914,"Ġow":3915,"Ġthief":3916,"aring":3917,"Ġpin":3918,"Ġpot":3919,"ingbroke":3920,"Ġrans":3921,"Ġmadness":3922,"Ġabro":3923,"Ġleis":3924,"Ġlegs":3925,"Ġcommit":3926,"Ġhonours":3927,"ABIAN":3928,"Ġcontr":3929,"Ġglass":3930,"Ġfalls":3931,"Ġtrib":3932,"UMNIA":3933,"Stand":3934,"Ġthrone":3935,"PROVOST":3936,"Ġpersu":3937,"Ġwanton":3938,"Ġoaths":3939,"Ġchoice":3940,"Ġemploy":3941,"ĠJUSTICE":3942,"ĠBolingbroke":3943,"AUTOLYCUS":3944,"Both":3945,"CADE":3946,"fl":3947,"ug":3948,"oral":3949,"Ġfew":3950,"Ġdance":3951,"Ġhunt":3952,"Ġga":3953,"ĠTower":3954,"ĠAp":3955,"Ġstory":3956,"Ġstars":3957,"ĠMess":3958,"this":3959,"ified":3960,"Ġspent":3961,"ards":3962,"Ġblows":3963,"ELLE":3964,"Ġroom":3965,"IANCA":3966,"Ġrare":3967,"QUIN":3968,"Ġappare":3969,"orses":3970,"Ġkeeps":3971,"Ġswords":3972,"Alarum":3973,"Another":3974,"Ġwinter":3975,"HOSTESS":3976,"JAX":3977,"Ġkneel":3978,"Ġcreature":3979,"Ġtyrant":3980,"Ġmurder":3981,"Ġargument":3982,"ybalt":3983,"Ah":3984,"Fool":3985,"Rome":3986,"ient":3987,"shall":3988,"Ġaid":3989,"Ġsli":3990,"Ġwond":3991,"Ġwag":3992,"Ġfame":3993,"Ġnay":3994,"Ġphysic":3995,"Ġgir":3996,"Ġmeat":3997,"ourse":3998,"ĠWas":3999,"ĠWhich":4000,"ĠSal":4001,"Ġstuff":4002,"ĠFie":4003,"ifford":4004,"Ġvows":4005,"Ġshore":4006,"Ġsail":4007,"ILLE":4008,"Ġchain":4009,"Ġrob":4010,"Ġbetray":4011,"Ġearn":4012,"Ġperfect":4013,"CHARMIAN":4014,"Ġways":4015,"Ġguilty":4016,"ĠLORDS":4017,"Ġmaiden":4018,"GRUMIO":4019,"Ġaffairs":4020,"Ġapproach":4021,"Ġoccasion":4022,"Ġsolemn":4023,"ĠDesdem":4024,"Ġpublic":4025,"ĠValentine":4026,"STEPHANO":4027,"Ere":4028,"der":4029,"eous":4030,"iver":4031,"og":4032,"vish":4033,"ys":4034,"Ġsens":4035,"ising":4036,"Ġfond":4037,"Ġfought":4038,"Ġdry":4039,"Ġlam":4040,"Ġod":4041,"Ġthunder":4042,"Ġheed":4043,"Ġgain":4044,"Ġmed":4045,"Ġsto":4046,"Ġnose":4047,"ĠFord":4048,"Ġknee":4049,"Ġvent":4050,"ĠKATH":4051,"Ġrise":4052,"Ġmayst":4053,"Ġproper":4054,"Ġrose":4055,"Ġdesert":4056,"wards":4057,"Ġcourage":4058,"Ġrepent":4059,"Ġsmell":4060,"LUCENTIO":4061,"ĠAnne":4062,"Ġreasons":4063,"Ġassur":4064,"ĠClifford":4065,"Ġundert":4066,"Ġidle":4067,"Ġsimple":4068,"IEF":4069,"Ġmonstrous":4070,"Ġleisure":4071,"BARDOLPH":4072,"cum":4073,"fer":4074,"house":4075,"na":4076,"uce":4077,"Ġed":4078,"Ġbas":4079,"Ġbaw":4080,"esides":4081,"Ġcost":4082,"ved":4083,"Ġeasy":4084,"Ġweight":4085,"rift":4086,"ĠEgy":4087,"Ġlover":4088,"Ġspring":4089,"ĠNothing":4090,"que":4091,"ĠKent":4092,"Ġproclaim":4093,"Ġenjoy":4094,"Ġfoe":4095,"Ġwherein":4096,"Ġparticul":4097,"Ġfollows":4098,"ĠMACBETH":4099,"ĠNorth":4100,"ointed":4101,"Ġtrumpets":4102,"Ġutter":4103,"Ġabroad":4104,"ĠEgypt":4105,"';":4106,"After":4107,"De":4108,"Fare":4109,"Made":4110,"PO":4111,"UBERT":4112,"jax":4113,"med":4114,"thi":4115,"would":4116,"where":4117,"Ġcure":4118,"Ġmeant":4119,"Ġev":4120,"ĠSp":4121,"Ġstone":4122,"ĠOut":4123,"ĠHeaven":4124,"ENCH":4125,"Ġdoom":4126,"ĠEven":4127,"ORA":4128,"thou":4129,"ĠFrom":4130,"ĠNever":4131,"Ġamaz":4132,"LOT":4133,"ĠKnow":4134,"Ġunless":4135,"Ġchall":4136,"Ġimag":4137,"angu":4138,"Ġsmo":4139,"AMORA":4140,"Ġmonster":4141,"Ġsilver":4142,"Ġhung":4143,"ĠJuliet":4144,"DIOMEDES":4145,"Ġfinger":4146,"Ġforsworn":4147,"Ġprotest":4148,"SANDER":4149,"Ġfiend":4150,"Laer":4151,"Ġransom":4152,"ĠDesdemona":4153,"Corn":4154,"Dis":4155,"DELLO":4156,"FLA":4157,"kin":4158,"ouds":4159,"Ġship":4160,"Ġmur":4161,"Ġbig":4162,"Ġfle":4163,"Ġfury":4164,"Ġcried":4165,"Ġport":4166,"Ġpaid":4167,"Ġweigh":4168,"Ġstol":4169,"ĠBass":4170,"Ġkins":4171,"ĠLondon":4172,"ppy":4173,"ump":4174,"aked":4175,"IBAN":4176,"Ġhonor":4177,"Ġfriar":4178,"agger":4179,"IONDELLO":4180,"Ġadieu":4181,"PAULINA":4182,"Ġcourtesy":4183,"SALISBURY":4184,"AGUS":4185,"ĠEdm":4186,"Ġawake":4187,"Ġsilence":4188,"Ġvict":4189,"umberland":4190,"Ġrank":4191,"Ġexecution":4192,"ĠPercy":4193,"GUIDERIUS":4194,"Ġneighbour":4195,"VIRAGUS":4196,"ĠBenedick":4197,"JAQUES":4198,"Ġmelancholy":4199,"CIUS":4200,"FER":4201,"FIDIUS":4202,"NES":4203,"WILLIAM":4204,"aces":4205,"ault":4206,"dain":4207,"fall":4208,"ĠUpon":4209,"ĠQu":4210,"Ġtable":4211,"Ġtune":4212,"Ġsqu":4213,"Ġsau":4214,"incess":4215,"Ġfood":4216,"Ġfee":4217,"itude":4218,"Ġdust":4219,"Ġdign":4220,"Ġline":4221,"Ġtomb":4222,"omach":4223,"Ġgate":4224,"ĠTime":4225,"ĠCA":4226,"Ġstart":4227,"ĠBARDOLPH":4228,"INUS":4229,"Ġdoors":4230,"ARL":4231,"ĠPy":4232,"ĠGe":4233,"ĠGre":4234,"Ġseven":4235,"Ġanger":4236,"rum":4237,"Ġspite":4238,"ĠYORK":4239,"RODER":4240,"allow":4241,"Ġrot":4242,"IRAND":4243,"Ġquoth":4244,"Ġabuse":4245,"Ġheav":4246,"Ġtwice":4247,"URN":4248,"Ġadm":4249,"Ġwitch":4250,"Ġcompan":4251,"Ġbegg":4252,"ATURN":4253,"Ġassure":4254,"ĠAthens":4255,"Ġsupper":4256,"Ġbroken":4257,"MACDUFF":4258,"ĠArt":4259,"Ġcorrupt":4260,"Ġwretch":4261,"NORFOLK":4262,"Ġduc":4263,"Ġconquer":4264,"Ġstudy":4265,"Ġremembrance":4266,"Ġbreathe":4267,"OLOFER":4268,"RODERIGO":4269,"IRANDA":4270,"OLOFERNES":4271,"AJAX":4272,"Br":4273,"Could":4274,"SC":4275,"TALBOT":4276,"ZAL":4277,"ience":4278,"ivers":4279,"ned":4280,"oc":4281,"yond":4282,"Ġband":4283,"isho":4284,"orious":4285,"Ġled":4286,"Ġlament":4287,"enance":4288,"Ġones":4289,"ĠBardolph":4290,"ONZAL":4291,"Ġseat":4292,"Ġvirgin":4293,"elve":4294,"Ġplot":4295,"ĠThough":4296,"Ġflood":4297,"PHERD":4298,"thello":4299,"Wherein":4300,"Ġconsider":4301,"HEPHERD":4302,"Ġtrial":4303,"Ġlawful":4304,"Ġmiser":4305,"GREMIO":4306,"Ġcondemn":4307,"BELARIUS":4308,"centio":4309,"Ġempt":4310,"Ġdreadful":4311,"Ġschool":4312,"ĠEdmund":4313,"ATURNINUS":4314,"ONZALO":4315,"--":4316,"AARON":4317,"Oph":4318,"PISANIO":4319,"POLIXENES":4320,"While":4321,"Ġtail":4322,"Ġfain":4323,"Ġfun":4324,"Ġfeet":4325,"Ġcat":4326,"Ġcustom":4327,"Ġyonder":4328,"Ġniece":4329,"enc":4330,"enet":4331,"Ġhit":4332,"Ġtop":4333,"Ġhap":4334,"Ġdoing":4335,"Ġseason":4336,"Ġloath":4337,"ĠDou":4338,"inds":4339,"ĠRom":4340,"Ġrid":4341,"Ġunha":4342,"Ġthinks":4343,"Ġwhereof":4344,"ctions":4345,"Ġremedy":4346,"Ġnatural":4347,"Ġguilt":4348,"Dog":4349,"ouchs":4350,"Alb":4351,"Ġsingle":4352,"Ġtempt":4353,"Ġcaptain":4354,"Ġskill":4355,"Ġminister":4356,"VOLUMNIA":4357,"Ġsubjects":4358,"Twas":4359,"oteus":4360,"Ġtowards":4361,"Ġprepar":4362,"SILVIA":4363,"HECTOR":4364,"SLENDER":4365,"TOM":4366,"WIS":4367,"ZO":4368,"good":4369,"ked":4370,"rat":4371,"wixt":4372,"Ġmurther":4373,"Ġwide":4374,"Ġwench":4375,"Ġwhilst":4376,"Ġburd":4377,"Ġcitizens":4378,"otect":4379,"ĠTH":4380,"ĠTybalt":4381,"ĠWh":4382,"ĠWilt":4383,"idius":4384,"tern":4385,"ĠCL":4386,"Ġstones":4387,"ĠHad":4388,"Ġreign":4389,"ENZO":4390,"Ġasleep":4391,"ĠBA":4392,"Ġdece":4393,"ĠGet":4394,"ĠGreat":4395,"ĠFair":4396,"ieur":4397,"Ġconc":4398,"Ġwhence":4399,"Ġwarlike":4400,"ENEAS":4401,"Ġclouds":4402,"Ġruin":4403,"Ġforgive":4404,"Ġpossible":4405,"Ġexpress":4406,"Ġmessenger":4407,"Ġjewel":4408,"ĠCoriol":4409,"Ġmemory":4410,"Ġfruit":4411,"DOL":4412,"EUS":4413,"HOLOFERNES":4414,"Lord":4415,"MAIN":4416,"RICHARD":4417,"bear":4418,"ere":4419,"iving":4420,"love":4421,"she":4422,"tom":4423,"Ġable":4424,"Ġaud":4425,"Ġbuck":4426,"Ġfart":4427,"Ġfirm":4428,"Ġfancy":4429,"onius":4430,"Ġdet":4431,"Ġdeter":4432,"Ġyea":4433,"enant":4434,"Ġthrive":4435,"Ġhorses":4436,"ators":4437,"atrice":4438,"Ġease":4439,"ĠWARWICK":4440,"alf":4441,"ĠSe":4442,"ĠCast":4443,"Ġstep":4444,"ĠOthello":4445,"ĠMort":4446,"ESEUS":4447,"ĠPHIL":4448,"ĠGu":4449,"Ġallow":4450,"Ġcomb":4451,"ELAND":4452,"ffic":4453,"eeth":4454,"ĠVI":4455,"ĠVol":4456,"CAIUS":4457,"Ġwarm":4458,"Ġbearing":4459,"CHIEF":4460,"DUMAIN":4461,"Ġslow":4462,"Ġpurpos":4463,"acher":4464,"Ġcrowns":4465,"ĠWherefore":4466,"IZEL":4467,"Ġsometime":4468,"Ġcondu":4469,"Ġsooner":4470,"Ġcolours":4471,"Ġgallant":4472,"ĠScot":4473,"Ġpowers":4474,"Ġprepare":4475,"LORIZEL":4476,"ESTMOR":4477,"ĠSilvia":4478,"Ġcounterfeit":4479,"Ġrascal":4480,"Ġcircum":4481,"Ġdearest":4482,"ESTMORELAND":4483,"Bl":4484,"Gon":4485,"Ros":4486,"Wor":4487,"ald":4488,"awn":4489,"inius":4490,"Ġwont":4491,"Ġdif":4492,"ences":4493,"Ġhol":4494,"Ġgrown":4495,"ĠAjax":4496,"aside":4497,"ĠSen":4498,"ĠServ":4499,"raid":4500,"Ġreceiv":4501,"urg":4502,"ĠPol":4503,"Ġangel":4504,"cture":4505,"Ġvenge":4506,"Ġshut":4507,"eless":4508,"Ġoutward":4509,"Ġsac":4510,"Ġalways":4511,"Ġtwelve":4512,"Ġflight":4513,"ENET":4514,"Ġperil":4515,"Ġaffect":4516,"CHARLES":4517,"aintain":4518,"Ġminds":4519,"Ġcountenance":4520,"ontent":4521,"Ġgriefs":4522,"Ġweeping":4523,"upid":4524,"KATHARINE":4525,"Ġprofess":4526,"Ġgriev":4527,"Ġencounter":4528,"Ġslander":4529,"ĠLeonato":4530,"Ġpunish":4531,"Ġparticular":4532,"Farewell":4533,"Ay":4534,"Ca":4535,"Mine":4536,"Those":4537,"UG":4538,"af":4539,"hor":4540,"ib":4541,"nat":4542,"ope":4543,"wit":4544,"Ġteeth":4545,"iny":4546,"Ġmain":4547,"Ġwives":4548,"Ġnought":4549,"Ġnumb":4550,"Ġnaked":4551,"omp":4552,"omas":4553,"Ġgard":4554,"utenant":4555,"ĠWor":4556,"Ġstomach":4557,"ĠHold":4558,"Ġlovers":4559,"iling":4560,"ctly":4561,"icy":4562,"Ġhopes":4563,"ired":4564,"Ġclo":4565,"Ġheavenly":4566,"ĠProteus":4567,"LAIN":4568,"Ġwomb":4569,"ETTA":4570,"Ġguest":4571,"Ġtriumph":4572,"Ġtreasure":4573,"AGAMEMNON":4574,"Ġpromis":4575,"Ġvoices":4576,"Ġwhether":4577,"Ġextrem":4578,"Ġabsence":4579,"Ġreverend":4580,"Ġquality":4581,"urious":4582,"ĠRosalind":4583,"Ġusurp":4584,"ĠNorthumberland":4585,"?'":4586,"?-":4587,"Ad":4588,"BISHOP":4589,"Call":4590,"En":4591,"GONZALO":4592,"Hear":4593,"HUBERT":4594,"Put":4595,"Whilst":4596,"iar":4597,"ivil":4598,"oll":4599,"vious":4600,"ination":4601,"Ġwings":4602,"reck":4603,"Ġbab":4604,"Ġcuck":4605,"Ġnine":4606,"Ġnumber":4607,"Ġthrust":4608,"Ġpat":4609,"Ġgown":4610,"lend":4611,"imer":4612,"ases":4613,"ria":4614,"rius":4615,"Ġrealm":4616,"roy":4617,"Ġloyal":4618,"ĠFirst":4619,"ĠDon":4620,"Ġsheep":4621,"Ġlovely":4622,"Ġbride":4623,"Ġunl":4624,"Ġunkind":4625,"Ġhollow":4626,"Ġprosper":4627,"Ġeng":4628,"ILIUS":4629,"cian":4630,"Ġfright":4631,"Ġdesperate":4632,"ressid":4633,"CAS":4634,"BERLAIN":4635,"oved":4636,"ĠSirrah":4637,"ĠMars":4638,"Ġchief":4639,"Ġtraitors":4640,"Ġaccount":4641,"Ġdiscourse":4642,"Ġburied":4643,"Ġhappiness":4644,"Ġboot":4645,"twixt":4646,"HAMBERLAIN":4647,"Ġintent":4648,"CALIBAN":4649,"ĠTitus":4650,"ĠAttendants":4651,"ishop":4652,"otector":4653,"ĠCastle":4654,"FABIAN":4655,"Hold":4656,"MONT":4657,"MIRANDA":4658,"SATURNINUS":4659,"TIUS":4660,"cis":4661,"shi":4662,"ung":4663,"Ġing":4664,"Ġtid":4665,"Ġtree":4666,"Ġborrow":4667,"Ġcher":4668,"Ġpage":4669,"Ġmelt":4670,"rible":4671,"ĠMil":4672,"hiles":4673,"ĠLa":4674,"think":4675,"Ġnobl":4676,"Ġfaces":4677,"Ġknife":4678,"Ġshrew":4679,"Ġgoodness":4680,"Think":4681,"Ġunc":4682,"ĠThomas":4683,"Ġsack":4684,"Ġexam":4685,"ĠVery":4686,"ertes":4687,"Ġprevail":4688,"Ġguess":4689,"Ġcover":4690,"Ġtrick":4691,"Ġkindness":4692,"Ġcharity":4693,"Ġmeaning":4694,"Ġbids":4695,"Ġhumbly":4696,"Ġlands":4697,"pense":4698,"Ġdenied":4699,"Ġcastle":4700,"Ġdrops":4701,"Ġdishonour":4702,"CLIFFORD":4703,"Ġbawd":4704,"Ġducats":4705,"ouchsafe":4706,"Love":4707,"Never":4708,"RA":4709,"Sp":4710,"TAMORA":4711,"ead":4712,"ront":4713,"Ġz":4714,"Ġet":4715,"Ġaim":4716,"Ġmiss":4717,"Ġmild":4718,"Ġwol":4719,"Ġwaste":4720,"rep":4721,"Ġbark":4722,"erves":4723,"iter":4724,"Ġdar":4725,"Ġdig":4726,"Ġcivil":4727,"Ġloose":4728,"Ġlangu":4729,"Ġthick":4730,"Ġhid":4731,"Ġbell":4732,"iment":4733,"ĠCy":4734,"rib":4735,"ROSS":4736,"Ġblush":4737,"elt":4738,"ody":4739,"Ġride":4740,"Ġprod":4741,"Ġenvy":4742,"Ġroot":4743,"Ġflies":4744,"Ġbreed":4745,"Ġplead":4746,"LYSANDER":4747,"Ġcompass":4748,"they":4749,"Ġbegins":4750,"MERLE":4751,"ianca":4752,"Ġdaughters":4753,"ĠBeatrice":4754,"Ġtreacher":4755,"Ġseeming":4756,"uteous":4757,"Ġspoken":4758,"Ġsickness":4759,"Hero":4760,"Ġobject":4761,"BOTTOM":4762,"Ġknees":4763,"Ġconstant":4764,"Ġdisgu":4765,"umphrey":4766,"Ġstorm":4767,"ĠMontague":4768,"Ġauthority":4769,"Ġbenef":4770,"Ġgirl":4771,"ĠRomans":4772,"Ġtidings":4773,"Cor":4774,"FIC":4775,"NER":4776,"Osw":4777,"bus":4778,"gan":4779,"ob":4780,"sing":4781,"ued":4782,"ws":4783,"Ġapt":4784,"Ġsal":4785,"Ġmaking":4786,"reg":4787,"isbury":4788,"Ġcries":4789,"Ġpound":4790,"Ġpress":4791,"Ġpainted":4792,"Ġbecomes":4793,"edious":4794,"ades":4795,"rand":4796,"Ġsol":4797,"ARIEL":4798,"ĠPardon":4799,"Ġhers":4800,"Ġspe":4801,"LEWIS":4802,"pping":4803,"oder":4804,"igo":4805,"igence":4806,"Ġbrings":4807,"Ġjoint":4808,"Ġunb":4809,"Ġunp":4810,"Ġdisple":4811,"ption":4812,"ĠAndronic":4813,"Ġlean":4814,"ITCH":4815,"Ġparty":4816,"Ġperj":4817,"ĠMarcus":4818,"ney":4819,"Ġmerit":4820,"LUCETTA":4821,"Ġaccus":4822,"Ġfreely":4823,"Ġcrack":4824,"Ġundone":4825,"Ġlearned":4826,"asket":4827,"Ġdespair":4828,"Ġtyran":4829,"Ġacquaint":4830,"Ġmirth":4831,"ĠCharles":4832,"Ġinnocent":4833,"Ġcredit":4834,"ĠHastings":4835,"ĠPHILIP":4836,"OV":4837,"Per":4838,"PID":4839,"SOMERSET":4840,"do":4841,"draw":4842,"father":4843,"know":4844,"sc":4845,"soe":4846,"ton":4847,"Ġtort":4848,"Ġtide":4849,"Ġtedious":4850,"Ġant":4851,"Ġsalt":4852,"Ġwat":4853,"ision":4854,"Ġhill":4855,"Ġhoney":4856,"Ġpick":4857,"Ġgaz":4858,"Ġghost":4859,"ating":4860,"Ġinvent":4861,"Ġhaz":4862,"Ġhabit":4863,"etrius":4864,"Ġung":4865,"ĠWITCH":4866,"ĠCressid":4867,"Ġstab":4868,"ĠMen":4869,"ĠMal":4870,"ĠMore":4871,"ĠBianca":4872,"aine":4873,"ESBY":4874,"ĠPet":4875,"ĠLau":4876,"ĠDem":4877,"ctav":4878,"THESEUS":4879,"Ġblest":4880,"Ġswore":4881,"Ġquit":4882,"Ġgreatest":4883,"Ġdeadly":4884,"Ġservants":4885,"ĠDoctor":4886,"Ġbelow":4887,"Ġstreets":4888,"Ġdivine":4889,"Ġprophe":4890,"volio":4891,"Ġforbear":4892,"ESTOR":4893,"AVILLE":4894,"ĠTrue":4895,"Ġhorns":4896,"Ġofficer":4897,"Ġearnest":4898,"ĠGeorge":4899,"Ġempty":4900,"COL":4901,"GA":4902,"Sings":4903,"UDIO":4904,"aul":4905,"bed":4906,"co":4907,"folk":4908,"hum":4909,"known":4910,"uc":4911,"vi":4912,"val":4913,"what":4914,"Ġ.":4915,"Ġ1":4916,"Ġeter":4917,"Ġton":4918,"ounce":4919,"ina":4920,"Ġmil":4921,"haps":4922,"Ġbought":4923,"Ġnames":4924,"Ġpack":4925,"atio":4926,"Ġeag":4927,"ĠWest":4928,"ĠCupid":4929,"ĠHumphrey":4930,"ĠMake":4931,"verse":4932,"ĠBan":4933,"ams":4934,"ONSO":4935,"eave":4936,"run":4937,"ĠNe":4938,"ement":4939,"Ġsaying":4940,"ĠOFFIC":4941,"Ġenforce":4942,"urnish":4943,"Ġgentlewoman":4944,"Ġcommission":4945,"Ġclot":4946,"ĠProtector":4947,"Ġappears":4948,"Ġprevent":4949,"Ġimper":4950,"LAUDIO":4951,"Ġcontempt":4952,"Ġslaughter":4953,"forth":4954,"ĠCaius":4955,"ethought":4956,"Ġvirtues":4957,"Ġwinds":4958,"ISSA":4959,"rancis":4960,"Ġtemper":4961,"Ġcapt":4962,"Ġestate":4963,"Ġesteem":4964,"Ġgarments":4965,"Ġoppos":4966,"Ġmodesty":4967,"Ġregard":4968,"LORENZO":4969,"Ġsighs":4970,"Ġsatisfied":4971,"FLAVIUS":4972,"Ġburden":4973,"Ġgarden":4974,"Away":4975,"Eng":4976,"FLORIZEL":4977,"Lady":4978,"Po":4979,"SAY":4980,"bar":4981,"oured":4982,"Ġsits":4983,"ining":4984,"Ġmaintain":4985,"Ġwake":4986,"erving":4987,"utes":4988,"ĠAb":4989,"ĠAg":4990,"ourt":4991,"ĠOctav":4992,"ĠHor":4993,"INCH":4994,"eare":4995,"ĠLA":4996,"ORS":4997,"Ġlod":4998,"Ġvice":4999,"antag":5000,"Ġconvey":5001,"oths":5002,"Ġloved":5003,"Ġtherein":5004,"istol":5005,"Myself":5006,"lesome":5007,"Ġrule":5008,"ĠItal":5009,"Ġbrains":5010,"clock":5011,"Ġturns":5012,"Ġprick":5013,"Ġprize":5014,"Ġmov":5015,"Ġbesides":5016,"ĠAlb":5017,"CLUS":5018,"Ġbird":5019,"Ġdespite":5020,"Ġsuddenly":5021,"Ġdisgrace":5022,"Ġlimbs":5023,"Ġviolent":5024,"Ġfiery":5025,"PUCELLE":5026,"Ġsuspect":5027,"HERMIA":5028,"Ġtempest":5029,"Ġignorant":5030,"EXETER":5031,"Ġthroat":5032,"ĠVenice":5033,"Ġobedience":5034,"QUINCE":5035,"ĠMortimer":5036,"oderigo":5037,"Ant":5038,"BIANCA":5039,"CIB":5040,"DIANA":5041,"Gent":5042,"Know":5043,"SHEPHERD":5044,"ULO":5045,"action":5046,"net":5047,"some":5048,"hest":5049,"Ġwing":5050,"rees":5051,"Ġcup":5052,"Ġpil":5053,"ĠTR":5054,"Ġforfeit":5055,"ĠAmen":5056,"ĠSAL":5057,"ĠCLO":5058,"ĠHence":5059,"ARVIRAGUS":5060,"ĠPri":5061,"Ġlock":5062,"Ġspare":5063,"ĠDi":5064,"ĠNOR":5065,"Ġvar":5066,"Ġvill":5067,"Ġneg":5068,"ember":5069,"Ġshed":5070,"Ġswell":5071,"icate":5072,"IADES":5073,"Ġbrook":5074,"Ġdisdain":5075,"Ġchair":5076,"Ġflower":5077,"Ġappre":5078,"Ġstrang":5079,"Ġtrif":5080,"atience":5081,"Stri":5082,"IPPA":5083,"Ġwindow":5084,"Ġmischief":5085,"Ġbuild":5086,"place":5087,"Ġattendants":5088,"ĠHermia":5089,"ĠNorfolk":5090,"TAIN":5091,"AUFIDIUS":5092,"ĠSalisbury":5093,"Ġundertake":5094,"Ġvictory":5095,"Ġconduct":5096,"Ġsacred":5097,"ĠAndronicus":5098,"Ġetern":5099,"CIBIADES":5100,"AENEAS":5101,"BE":5102,"Lo":5103,"SIM":5104,"Sweet":5105,"Ver":5106,"Yea":5107,"col":5108,"fac":5109,"mine":5110,"ogue":5111,"pass":5112,"uil":5113,"Ġtaught":5114,"Ġsour":5115,"Ġsides":5116,"Ġbrows":5117,"Ġfro":5118,"Ġfix":5119,"Ġdumb":5120,"Ġcam":5121,"Ġleng":5122,"arm":5123,"Ġpie":5124,"Ġincl":5125,"illo":5126,"Ġeas":5127,"idence":5128,"alks":5129,"rald":5130,"ording":5131,"Ġreck":5132,"Ġrenown":5133,"uring":5134,"INAND":5135,"ĠPlease":5136,"iliar":5137,"Ġspake":5138,"STARD":5139,"quo":5140,"ulet":5141,"Ġsway":5142,"Ġrhy":5143,"IRON":5144,"Ġalas":5145,"cial":5146,"Ġflourish":5147,"Ġdeserv":5148,"Ġearly":5149,"IONE":5150,"ISTRESS":5151,"CHBISHOP":5152,"Ġslight":5153,"Ġends":5154,"Ġfollowing":5155,"Ġfollowers":5156,"ATCH":5157,"Ġchide":5158,"Ġcharm":5159,"Ġdischar":5160,"Ġsounds":5161,"Ġsometimes":5162,"sooth":5163,"Ġframe":5164,"ERDINAND":5165,"Ġflowers":5166,"LAUNCELOT":5167,"ramus":5168,"ĠShallow":5169,"ĠTruly":5170,"Ġambition":5171,"Ġpolicy":5172,"Ġcontrary":5173,"Ġchallenge":5174,"Ġsmooth":5175,"Ġkinsman":5176,"ĠDemetrius":5177,"Ġtonight":5178,"Might":5179,"Makes":5180,"Rem":5181,"Turn":5182,"dis":5183,"fri":5184,"lot":5185,"oon":5186,"pic":5187,"rough":5188,"wear":5189,"Ġ2":5190,"ĠUn":5191,"Ġtap":5192,"Ġavo":5193,"inite":5194,"rent":5195,"reak":5196,"Ġbud":5197,"Ġfish":5198,"Ġdurst":5199,"Ġhig":5200,"Ġinfect":5201,"ĠWales":5202,"aded":5203,"Ġstore":5204,"Ġsore":5205,"Ġliest":5206,"ĠBer":5207,"ĠBurg":5208,"Ġsham":5209,"ĠPRIN":5210,"ĠLear":5211,"ruction":5212,"Ġshallow":5213,"Ġshot":5214,"LEY":5215,"ĠRoderigo":5216,"Ġsweat":5217,"oldiers":5218,"Ġclim":5219,"IDOW":5220,"Ġpurcha":5221,"LUCIANA":5222,"ails":5223,"Ġmeeting":5224,"undy":5225,"avin":5226,"Ġprisoners":5227,"Ġdreams":5228,"Ġprofit":5229,"Ġgroan":5230,"Ġvex":5231,"worthy":5232,"ĠCapit":5233,"Ġdares":5234,"Ġcerem":5235,"Ġvengeance":5236,"ĠBurgundy":5237,"Either":5238,"Ha":5239,"Ne":5240,"Unt":5241,"Whiles":5242,"act":5243,"mend":5244,"nock":5245,"pir":5246,"upon":5247,"ĠEN":5248,"hether":5249,"Ġsy":5250,"Ġbill":5251,"Ġfant":5252,"Ġdying":5253,"Ġdagger":5254,"Ġcool":5255,"Ġcock":5256,"Ġcease":5257,"Ġpear":5258,"omin":5259,"omed":5260,"ĠWATCH":5261,"ĠSH":5262,"ĠSuch":5263,"ERIO":5264,"ĠCal":5265,"ĠMan":5266,"Ġrender":5267,"ĠGon":5268,"Ġseas":5269,"Ġseest":5270,"Ġsuck":5271,"rue":5272,"asting":5273,"Ġshine":5274,"alls":5275,"Ġrash":5276,"Ġrock":5277,"Ġcloud":5278,"Ġperforce":5279,"Ġimage":5280,"Ġcomplex":5281,"Ġarmour":5282,"Ġhark":5283,"Ġsmiles":5284,"mpet":5285,"ĠWere":5286,"Ġnative":5287,"Ġtread":5288,"Ġbodies":5289,"Ġdisposition":5290,"Ġshortly":5291,"Ġburning":5292,"Ġdamned":5293,"Ġgifts":5294,"ĠPlantag":5295,"Ġpicture":5296,"Between":5297,"Ġbehalf":5298,"Ġiron":5299,"ĠANTONY":5300,"Ġequal":5301,"Ġodds":5302,"ĠKATHARINE":5303,"Ġedge":5304,"Ġmurde":5305,"ĠPyramus":5306,"PIDUS":5307,"ĠHoratio":5308,"ĠCapitol":5309,"'?":5310,"DY":5311,"LONG":5312,"Save":5313,"WELL":5314,"ape":5315,"fellow":5316,"rid":5317,"then":5318,"which":5319,"hend":5320,"Ġmag":5321,"Ġwoes":5322,"Ġcrow":5323,"Ġcens":5324,"Ġherald":5325,"anct":5326,"Ġbelly":5327,"Ġbeyond":5328,"Ġinform":5329,"semble":5330,"Ġforces":5331,"ĠAm":5332,"ĠWatch":5333,"Ġweeds":5334,"ERO":5335,"ĠHal":5336,"ĠHath":5337,"ĠMerc":5338,"ĠBring":5339,"Ġdogs":5340,"ĠLy":5341,"Ġsell":5342,"thur":5343,"ALONSO":5344,"iege":5345,"resent":5346,"Ġpron":5347,"ĠThink":5348,"Ġadmit":5349,"Ġraise":5350,"Ġappet":5351,"Ġprey":5352,"Ġpursu":5353,"Ġconfirm":5354,"Ġimposs":5355,"Ġadvice":5356,"Ġsorrows":5357,"Ġcrave":5358,"Ġsky":5359,"Ġbeaten":5360,"Ġdevise":5361,"Ġattempt":5362,"Ġoffended":5363,"Ġapart":5364,"Ġelder":5365,"Ġmourn":5366,"Ġdegree":5367,"Ġfarther":5368,"ĠSenate":5369,"ĠLaertes":5370,"LONGAVILLE":5371,"App":5372,"Acc":5373,"Bel":5374,"BIONDELLO":5375,"EPER":5376,"Keep":5377,"NESTOR":5378,"Sha":5379,"Somet":5380,"look":5381,"master":5382,"wd":5383,"zz":5384,"Ġsat":5385,"isper":5386,"Ġfil":5387,"Ġfif":5388,"Ġder":5389,"Ġcell":5390,"Ġthie":5391,"Ġpair":5392,"ator":5393,"sequ":5394,"lect":5395,"uted":5396,"Ġisland":5397,"ĠTw":5398,"adua":5399,"Ġstick":5400,"Ġstock":5401,"roll":5402,"roach":5403,"Ġdeceive":5404,"ĠLE":5405,"ĠLADY":5406,"Ġsearch":5407,"olute":5408,"TRINC":5409,"Ġalike":5410,"assad":5411,"Ġfathers":5412,"lip":5413,"Ġfairly":5414,"Ġprefer":5415,"Ġafraid":5416,"Ġstranger":5417,"Ġglorious":5418,"bling":5419,"Ġdearly":5420,"sander":5421,"Ġsleeping":5422,"Alas":5423,"MARCIUS":5424,"twill":5425,"Ġaffli":5426,"Ġwax":5427,"Ġinfinite":5428,"Ġdevice":5429,"Cannot":5430,"Ġuntil":5431,"Ġfatal":5432,"glas":5433,"Ġobserv":5434,"Ġreverence":5435,"Ġpractice":5436,"ĠGreek":5437,"Ġfigure":5438,"ĠDouglas":5439,"natural":5440,"Ġnumbers":5441,"Ġhazard":5442,"COLM":5443,"Poins":5444,"avinia":5445,"ĠPlantagenet":5446,"TRINCULO":5447,"CARDINAL":5448,"CHAMBERLAIN":5449,"Great":5450,"Me":5451,"Ret":5452,"WESTMORELAND":5453,"came":5454,"eld":5455,"gu":5456,"mond":5457,"was":5458,"Ġmart":5459,"hand":5460,"Ġfits":5461,"onest":5462,"Ġpill":5463,"anus":5464,"omen":5465,"Ġforsooth":5466,"ĠWels":5467,"ĠCle":5468,"ĠHang":5469,"ĠMine":5470,"Ġdeceiv":5471,"ĠPoor":5472,"ĠPeter":5473,"Ġsees":5474,"ĠFollow":5475,"Ġknaves":5476,"Ġven":5477,"ALCIBIADES":5478,"seless":5479,"LEANS":5480,"Ġworthi":5481,"Ġhereafter":5482,"EDWARD":5483,"unate":5484,"Ġspeaking":5485,"osed":5486,"Ġabus":5487,"ĠVer":5488,"Ġtells":5489,"Ġroar":5490,"Ġparted":5491,"Ġserp":5492,"Ġfairy":5493,"Ġladyship":5494,"Ġmerchant":5495,"Ġputs":5496,"onsieur":5497,"ĠHereford":5498,"Ġconfound":5499,"Ġsubstance":5500,"ĠAlack":5501,"Ġdiscover":5502,"Ġvillains":5503,"Ġmaids":5504,"Ġattending":5505,"Ġattended":5506,"Ġcountrymen":5507,"AUMERLE":5508,"Ġbarren":5509,"Ġaccept":5510,"Ġblessing":5511,"TEND":5512,"MALCOLM":5513,"Ġprivile":5514,"Ġfingers":5515,"CONSTABLE":5516,"Ġmidnight":5517,"Ġfairest":5518,"Ġweapons":5519,"Ġbounty":5520,"Ġrevolt":5521,"ĠBassanio":5522,"ĠVols":5523,"Ġpurposes":5524,"Ġspecial":5525,"ĠDiomed":5526,"ĠWelsh":5527,"CLAUDIO":5528,"GUN":5529,"IV":5530,"Methinks":5531,"OY":5532,"Rep":5533,"Too":5534,"WER":5535,"acy":5536,"boy":5537,"cure":5538,"des":5539,"lock":5540,"port":5541,"peare":5542,"rite":5543,"uf":5544,"Ġtall":5545,"Ġtarry":5546,"Ġsnow":5547,"Ġscept":5548,"Ġmom":5549,"Ġwants":5550,"Ġdim":5551,"Ġcave":5552,"Ġcalm":5553,"Ġodd":5554,"etter":5555,"oops":5556,"ĠCLEOPATRA":5557,"Ġsooth":5558,"ĠBo":5559,"ĠBar":5560,"ros":5561,"Ġdew":5562,"ĠPistol":5563,"gels":5564,"Ġshr":5565,"Ġnephe":5566,"THER":5567,"outs":5568,"eliver":5569,"igious":5570,"Ġunknown":5571,"Ġhandker":5572,"Ġthinking":5573,"ustice":5574,"Ġbred":5575,"ITA":5576,"PHIN":5577,"Ġripe":5578,"ĠPrincess":5579,"Ġreputation":5580,"Ġsentence":5581,"OLIVER":5582,"kespeare":5583,"ĠLucentio":5584,"Ġhateful":5585,"AUPHIN":5586,"prise":5587,"Ġmodest":5588,"Ġmountain":5589,"Ġfamiliar":5590,"ĠShakespeare":5591,"ĠThanks":5592,"Ġconceit":5593,"Ġbottom":5594,"Ġchaste":5595,"ĠCamillo":5596,"CASCA":5597,"ĠBanquo":5598,"INCHESTER":5599,"Ġlength":5600,"ĠEND":5601,"TENDANT":5602,"Each":5603,"OX":5604,"Poor":5605,"SUR":5606,"apt":5607,"avy":5608,"bow":5609,"cap":5610,"jo":5611,"law":5612,"mark":5613,"maid":5614,"off":5615,"ping":5616,"pur":5617,"ta":5618,"wh":5619,"Ġtame":5620,"Ġsaint":5621,"Ġsanct":5622,"Ġmass":5623,"Ġwink":5624,"Ġbind":5625,"Ġbite":5626,"Ġbade":5627,"itable":5628,"Ġdri":5629,"Ġdress":5630,"Ġnice":5631,"ency":5632,"Ġpour":5633,"Ġpier":5634,"ank":5635,"Ġinher":5636,"chio":5637,"ĠAT":5638,"ĠAlex":5639,"Ġstat":5640,"ĠBUCKINGHAM":5641,"Ġdeer":5642,"ĠEmp":5643,"Ġsuper":5644,"ĠFriar":5645,"ĠFrancis":5646,"ruchio":5647,"ĠNone":5648,"Ġvantage":5649,"hange":5650,"EDFORD":5651,"Ġjour":5652,"Ġunw":5653,"uns":5654,"Ġpock":5655,"Ġalter":5656,"Ġbetwixt":5657,"Ġwrought":5658,"Ġwhisper":5659,"them":5660,"Ġfinds":5661,"PATRO":5662,"Ġrepair":5663,"blood":5664,"Ġslew":5665,"Ġcourtier":5666,"BRAY":5667,"Ġaccuse":5668,"Ġmonument":5669,"Ġboast":5670,"Ġcraft":5671,"Only":5672,"Ġmarket":5673,"Ġminute":5674,"Ġgrieve":5675,"Ġinstrument":5676,"moreland":5677,"Ġaffections":5678,"engers":5679,"OWBRAY":5680,"Ġfierce":5681,"HERMIONE":5682,"ĠBritain":5683,"FRENCH":5684,"ichmond":5685,"Ġadmir":5686,"indsor":5687,"Ġcuckold":5688,"Ġappetite":5689,"ufidius":5690,"Ġmoment":5691,"PATROCLUS":5692,"Bora":5693,"NYM":5694,"light":5695,"oard":5696,"tell":5697,"time":5698,"Ġ3":5699,"Ġsings":5700,"Ġmood":5701,"Ġbent":5702,"Ġfin":5703,"Ġfate":5704,"Ġdot":5705,"Ġdow":5706,"Ġluck":5707,"Ġbefall":5708,"Ġink":5709,"Ġisle":5710,"ĠTur":5711,"ĠTITUS":5712,"Ġeight":5713,"ĠAufidius":5714,"ado":5715,"hers":5716,"ĠSat":5717,"riv":5718,"Ġstage":5719,"Ġstaff":5720,"Ġstroke":5721,"ĠMISTRESS":5722,"Ġkin":5723,"INTER":5724,"ANLEY":5725,"ĠPis":5726,"ĠPhi":5727,"ĠPAR":5728,"ested":5729,"ĠNature":5730,"ICA":5731,"elia":5732,"Ġworm":5733,"Ġarrest":5734,"ĠKather":5735,"arent":5736,"Ġplant":5737,"Ġunse":5738,"Ġalso":5739,"Ġfox":5740,"Ġabhor":5741,"Ġtwain":5742,"ESSICA":5743,"Ġgraces":5744,"ression":5745,"Ġtrade":5746,"BERON":5747,"Ġwhither":5748,"Ġprayer":5749,"thee":5750,"Ġeverything":5751,"Ġfriendship":5752,"retch":5753,"Ġcoz":5754,"Ġpeers":5755,"Ġretire":5756,"Ġvillainy":5757,"Ġmisery":5758,"Ġbanqu":5759,"Ġadvance":5760,"Although":5761,"Ġfavours":5762,"should":5763,"ĠEmilia":5764,"Ġpitch":5765,"Ġshoot":5766,"Ġbabe":5767,"Ġshift":5768,"Ġnobles":5769,"Ġmonths":5770,"CONSTANCE":5771,"hearted":5772,"Ġlamb":5773,"Ġrotten":5774,"Ġbenefit":5775,"NERISSA":5776,"ĠWestmoreland":5777,"Ġcomplexion":5778,"EROS":5779,"ĠLysander":5780,"ĠATTENDANT":5781,"ĠEmpress":5782,"Am":5783,"AUS":5784,"Besides":5785,"Su":5786,"bours":5787,"ded":5788,"fold":5789,"ipe":5790,"long":5791,"leness":5792,"pet":5793,"rison":5794,"ux":5795,"wife":5796,"Ġtask":5797,"Ġsins":5798,"Ġwither":5799,"Ġwreck":5800,"Ġbury":5801,"Ġfront":5802,"Ġfurnish":5803,"Ġyester":5804,"ense":5805,"Ġhind":5806,"str":5807,"atra":5808,"irty":5809,"Ġwears":5810,"ĠCOR":5811,"Ġrede":5812,"urb":5813,"ĠBra":5814,"amour":5815,"Ġdeb":5816,"Ġwilling":5817,"ĠPUC":5818,"ĠGU":5819,"ĠLavinia":5820,"Ġspur":5821,"ĠDen":5822,"ĠDoth":5823,"Ġves":5824,"Ġvol":5825,"Ġvouchsafe":5826,"romio":5827,"asted":5828,"Ġamiss":5829,"Ġmult":5830,"Ġblunt":5831,"Ġswallow":5832,"Ġseeing":5833,"Ġplaces":5834,"Ġunnatural":5835,"Ġheartily":5836,"Ġenvious":5837,"Ġflatt":5838,"Ġcler":5839,"Ġnights":5840,"LAW":5841,"ĠToby":5842,"Ġconsul":5843,"Ġresc":5844,"Ġbelong":5845,"Ġchang":5846,"Ġmoe":5847,"Still":5848,"ĠBrother":5849,"ĠBrook":5850,"Ġsleeps":5851,"Ġlaws":5852,"Ġbeauteous":5853,"Ġdevils":5854,"Ġgrey":5855,"Ġsends":5856,"MENAS":5857,"Ġhardly":5858,"opatra":5859,"Ġcares":5860,"Ġexcept":5861,"Ġsilent":5862,"ĠArthur":5863,"Ġintell":5864,"Ġdelay":5865,"Ġmouths":5866,"ediate":5867,"Two":5868,"Ġgroans":5869,"Ġdarkness":5870,"Ġhuge":5871,"Ġwounded":5872,"Ġacquainted":5873,"ĠDeath":5874,"Ġtorment":5875,"ĠGentlemen":5876,"Ġignorance":5877,"Ġunfold":5878,"ĠRobert":5879,"OCTA":5880,"THURIO":5881,"Ġconjure":5882,"Ġdignity":5883,"ĠWhither":5884,"Ġdifference":5885,"Ġtorture":5886,"ĠPetruchio":5887,"Ġeternal":5888,"Ġavoid":5889,"Bring":5890,"France":5891,"GILIA":5892,"Hast":5893,"IOR":5894,"LANT":5895,"NIER":5896,"TIT":5897,"pier":5898,"roth":5899,"ser":5900,"war":5901,"Ġtest":5902,"held":5903,"Ġsand":5904,"Ġsought":5905,"Ġbull":5906,"Ġyond":5907,"arus":5908,"Ġpomp":5909,"oms":5910,"stant":5911,"uties":5912,"ĠHail":5913,"ĠMEN":5914,"Ġrecom":5915,"Ġsoci":5916,"Ġlip":5917,"Ġdecl":5918,"ĠGREY":5919,"ĠLie":5920,"Ġangels":5921,"Ġsup":5922,"ously":5923,"Ġthereof":5924,"Ġdiss":5925,"Ġsacri":5926,"Ġalthough":5927,"Ġchase":5928,"Ġfriendly":5929,"Ġmarks":5930,"lied":5931,"tled":5932,"Ġrail":5933,"Ġraven":5934,"new":5935,"ĠSoft":5936,"Ġfollowed":5937,"ATCLIFF":5938,"Ġcoff":5939,"Ġfeather":5940,"Ġpassage":5941,"Ġcheck":5942,"Ġassist":5943,"AGENET":5944,"IGNIER":5945,"Ġcommanded":5946,"Ġstronger":5947,"Ġruns":5948,"Ġdrums":5949,"Ġdefence":5950,"hamber":5951,"gged":5952,"Ġcommonwe":5953,"Ġpleasant":5954,"Ġpleasures":5955,"Ġbanishment":5956,"ĠSENIOR":5957,"iddle":5958,"Ġbleed":5959,"cules":5960,"Ġapparel":5961,"Ġshrewd":5962,"Ġclothes":5963,"England":5964,"ĠSALISBURY":5965,"Ġpieces":5966,"Ġimpossible":5967,"GUNDY":5968,"Ġbanquet":5969,"Ġredeem":5970,"Ġvessel":5971,"LANTAGENET":5972,"AE":5973,"BAN":5974,"Bear":5975,"Came":5976,"Draw":5977,"DOV":5978,"First":5979,"FERDINAND":5980,"Gives":5981,"Mess":5982,"MOND":5983,"Music":5984,"Sound":5985,"acc":5986,"uries":5987,"hemia":5988,"Ġsink":5989,"Ġstern":5990,"ined":5991,"Ġwest":5992,"Ġfelt":5993,"Ġnaught":5994,"Ġpause":5995,"otion":5996,"Ġheight":5997,"inger":5998,"Ġbew":5999,"Ġhaunt":6000,"Ġfors":6001,"ĠSUFFOLK":6002,"ĠCorn":6003,"Ġstoop":6004,"ĠOL":6005,"Ġrend":6006,"ĠBoy":6007,"INIA":6008,"ĠPost":6009,"Ġnobly":6010,"geon":6011,"Ġbutcher":6012,"ĠFALSTAFF":6013,"ĠDromio":6014,"ĠNap":6015,"ouses":6016,"ĠYO":6017,"LEPIDUS":6018,"venge":6019,"ĠRichmond":6020,"ICO":6021,"ept":6022,"Ġworn":6023,"UTLAW":6024,"Ġpoet":6025,"Ġrobb":6026,"Ġmarvel":6027,"Ġartic":6028,"Ġscene":6029,"Ġperish":6030,"QUO":6031,"ĠMarch":6032,"Ġslaves":6033,"ĠThisby":6034,"Ġglove":6035,"Ġlieutenant":6036,"Ġslept":6037,"OTHSAY":6038,"retion":6039,"Ġstays":6040,"Ġkindly":6041,"Ġafterwards":6042,"ICHMOND":6043,"Ġsecure":6044,"ranio":6045,"upiter":6046,"Show":6047,"ubert":6048,"Clown":6049,"Ġrecord":6050,"Ġincre":6051,"Ġvisage":6052,"bitious":6053,"Ġbooks":6054,"Ġcreatures":6055,"ĠHelp":6056,"KATHERINE":6057,"erns":6058,"Ġmistake":6059,"Conf":6060,"Ġnobility":6061,"ĠBelieve":6062,"mbling":6063,"reedom":6064,"Ġfairer":6065,"Ġcommitted":6066,"Ġsenses":6067,"POET":6068,"Ġcompanion":6069,"ĠCoriolanus":6070,"ĠScotland":6071,"Ġcloak":6072,"Ġwolf":6073,"Ġlanguage":6074,"Ġdispleasure":6075,"Ġacquaintance":6076,"Ġmilk":6077,"ĠPriam":6078,"ĠPRINCE":6079,"Ġnephew":6080,"Ġhandkerchief":6081,"BANQUO":6082,"DOVICO":6083,"OTHSAYER":6084,"GENTLE":6085,"cing":6086,"erest":6087,"foot":6088,"give":6089,"live":6090,"mm":6091,"pit":6092,"pul":6093,"ris":6094,"roop":6095,"than":6096,"wall":6097,"Ġtou":6098,"Ġmill":6099,"Ġmask":6100,"eril":6101,"Ġcand":6102,"Ġlines":6103,"arried":6104,"Ġhur":6105,"Ġpaint":6106,"Ġpawn":6107,"Ġhail":6108,"leans":6109,"aying":6110,"illon":6111,"ĠTom":6112,"Ġweather":6113,"Ġstamp":6114,"ĠOffic":6115,"ĠHubert":6116,"Ġreward":6117,"ĠBid":6118,"ĠBER":6119,"INS":6120,"rog":6121,"rop":6122,"ARTIUS":6123,"ĠPort":6124,"ĠFear":6125,"ĠDian":6126,"iev":6127,"Ġblown":6128,"Through":6129,"Ġalarum":6130,"ista":6131,"Ġabide":6132,"together":6133,"Ġleague":6134,"Ġdesign":6135,"Ġdescend":6136,"Ġserves":6137,"CAT":6138,"Ġscape":6139,"Ġclock":6140,"ĠLords":6141,"CHANT":6142,"ainty":6143,"Ġharsh":6144,"GOWER":6145,"Ġpassing":6146,"Ġcurs":6147,"Ġgild":6148,"Ġtremble":6149,"Ġfaithful":6150,"Ġhuman":6151,"Ġfalsehood":6152,"Ġmonarch":6153,"Ġhangs":6154,"ĠHercules":6155,"BOW":6156,"Ġbirds":6157,"Ġparley":6158,"Ġwritten":6159,"Ġbravely":6160,"Ġrecover":6161,"asca":6162,"Ġmoved":6163,"Ġbeasts":6164,"ĠTroyan":6165,"bridge":6166,"Ġrebell":6167,"ĠCapulet":6168,"PUCK":6169,"Ġsavage":6170,"Ġcreep":6171,"ĠGrecian":6172,"Ġtailor":6173,"Ġunhappy":6174,"Ġcircumstance":6175,"Ġzeal":6176,"Ġtyranny":6177,"viour":6178,"ĠItaly":6179,"ĠCLOWN":6180,"Ġthieves":6181,"ĠCleopatra":6182,"aptista":6183,"Ġsacrif":6184,"ĠNaples":6185,"DR":6186,"DAUPHIN":6187,"Heaven":6188,"Set":6189,"bble":6190,"chard":6191,"eve":6192,"just":6193,"wer":6194,"Ġach":6195,"Ġmak":6196,"Ġwrest":6197,"has":6198,"Ġdrive":6199,"Ġlap":6200,"Ġthorn":6201,"arrow":6202,"aries":6203,"Ġtoil":6204,"stain":6205,"Ġgidd":6206,"Ġinward":6207,"uts":6208,"chb":6209,"ĠTrib":6210,"ĠTranio":6211,"ĠWin":6212,"ĠCasca":6213,"Ġstub":6214,"Ġstretch":6215,"rag":6216,"ĠOUTLAW":6217,"ĠMe":6218,"ĠMust":6219,"Ġrejo":6220,"amemn":6221,"Ġdoctor":6222,"Ġwillingly":6223,"ANIA":6224,"ARCHBISHOP":6225,"earer":6226,"ĠGoths":6227,"Ġsple":6228,"Ġknit":6229,"Ġknot":6230,"Ġambitious":6231,"quire":6232,"Ġgodd":6233,"LODOVICO":6234,"Ġque":6235,"ĠJupiter":6236,"Ġcharac":6237,"ĠVillain":6238,"agg":6239,"Ġdesir":6240,"Ġpartly":6241,"Ġperfection":6242,"beral":6243,"CHIRON":6244,"Ġnorth":6245,"Ġremains":6246,"Ġmerri":6247,"Ġservices":6248,"Ġglo":6249,"Ġtravel":6250,"Ġplays":6251,"Ġtricks":6252,"SALERIO":6253,"Ġhumours":6254,"Ġsurely":6255,"Ġstrife":6256,"ĠTIMON":6257,"EMBROKE":6258,"aws":6259,"rank":6260,"Ġspoil":6261,"Ġstrain":6262,"Ġreading":6263,"Ġreveng":6264,"Ġdepend":6265,"Ġcholer":6266,"Ġcorre":6267,"Ġcoron":6268,"Ġsigns":6269,"ĠJulia":6270,"ferent":6271,"Ġlusty":6272,"Ġwedding":6273,"Ġverse":6274,"ĠFlore":6275,"Ġwhoreson":6276,"Ġpetition":6277,"Ġwondrous":6278,"Ġmiserable":6279,"ĠCLARENCE":6280,"DOLL":6281,"humus":6282,"Ġrhyme":6283,"picion":6284,"Until":6285,"IVERS":6286,"Ġpocket":6287,"amemnon":6288,"Bid":6289,"Hark":6290,"Kne":6291,"MO":6292,"MOWBRAY":6293,"Nothing":6294,"Whether":6295,"bre":6296,"bes":6297,"cest":6298,"den":6299,"hra":6300,"ict":6301,"mouth":6302,"par":6303,"sha":6304,"same":6305,"Ġmile":6306,"Ġwhip":6307,"reland":6308,"rels":6309,"Ġbore":6310,"orter":6311,"ĠIreland":6312,"Ġcal":6313,"Ġoce":6314,"Ġyoke":6315,"Ġgru":6316,"see":6317,"lender":6318,"ldom":6319,"ĠTut":6320,"ĠAU":6321,"ĠAng":6322,"ordelia":6323,"Ġrece":6324,"Ġrepe":6325,"Ġliberal":6326,"ĠBaptista":6327,"ĠPadua":6328,"eav":6329,"ĠGaunt":6330,"ORLEANS":6331,"eard":6332,"ĠDis":6333,"arded":6334,"ressed":6335,"Ġconven":6336,"Ġblus":6337,"ortens":6338,"Ġunworthy":6339,"ANTIO":6340,"Ġoffices":6341,"Ġwholesome":6342,"cians":6343,"Ġbreach":6344,"Ġdeserves":6345,"lia":6346,"Ġotherwise":6347,"Ġtrim":6348,"ABANTIO":6349,"Ġbegu":6350,"PAINTER":6351,"ewis":6352,"iled":6353,"ĠIsab":6354,"Ġkindred":6355,"Ġgiving":6356,"BRABANTIO":6357,"Ġtrees":6358,"Ġsubtle":6359,"Ġstream":6360,"Ġyouthful":6361,"Ġhanging":6362,"MARIANA":6363,"Ġkisses":6364,"Ġjoyful":6365,"Ġdistra":6366,"Ġterm":6367,"Ġundo":6368,"Ġpenny":6369,"Ġguarded":6370,"Ġredress":6371,"Ġduked":6372,"ĠOrleans":6373,"Ġaddition":6374,"Ġmessage":6375,"cription":6376,"Ġabsent":6377,"Ġobserve":6378,"Ġsatisfaction":6379,"Ġconquest":6380,"Ġpossession":6381,"Ġentertainment":6382,"Ġjealousy":6383,"Ġdaily":6384,"Ġinnoc":6385,"Ġdecay":6386,"INCENTIO":6387,"Ġgait":6388,"Ġsaucy":6389,"Ġaudience":6390,"Ġdetermin":6391,"ĠGuild":6392,"Caesar":6393,"ĠMilan":6394,"Ġexample":6395,"ĠMalvolio":6396,"ĠLaunce":6397,"ĠAgamemnon":6398,"Ġreckon":6399,"Ġclimb":6400,"Ġcensure":6401,"Ġfifty":6402,"Ġserpent":6403,"Ġprivilege":6404,"Ġsceptre":6405,"THERER":6406,"ĠPosthumus":6407,"Ġgoddess":6408,"Among":6409,"Dou":6410,"Full":6411,"Twere":6412,"court":6413,"duff":6414,"fav":6415,"gues":6416,"grim":6417,"lse":6418,"met":6419,"tles":6420,"vest":6421,"Ġ-":6422,"hear":6423,"Ġsine":6424,"Ġsiege":6425,"inct":6426,"Ġwail":6427,"isible":6428,"Ġfed":6429,"Ġfreedom":6430,"ital":6431,"Ġcorse":6432,"Ġoak":6433,"enster":6434,"Ġpee":6435,"ative":6436,"ced":6437,"ĠTam":6438,"keep":6439,"ĠSy":6440,"ĠSOMERSET":6441,"ĠSoldiers":6442,"ĠSlender":6443,"Ġsting":6444,"ĠMethinks":6445,"Ġsoil":6446,"Ġliqu":6447,"Ġaspect":6448,"Ġasham":6449,"aming":6450,"Ġdozen":6451,"Ġwills":6452,"ANC":6453,"uses":6454,"ARRO":6455,"ĠGR":6456,"ĠLong":6457,"Ġspl":6458,"Ġspurn":6459,"Ġshown":6460,"quis":6461,"Ġconference":6462,"ivered":6463,"emper":6464,"bled":6465,"ĠKeep":6466,"Ġshoulder":6467,"Ġunm":6468,"Ġdisease":6469,"Ġquench":6470,"ILL":6471,"Ġleads":6472,"Ġtroops":6473,"Ġscru":6474,"Ġwarri":6475,"Ġado":6476,"Ġkey":6477,"Ġcontro":6478,"Ġarmed":6479,"Ġended":6480,"Ġyounger":6481,"Ġcoat":6482,"Ġchid":6483,"Ġcurt":6484,"Ġcurrent":6485,"Ġimprison":6486,"Ġdrew":6487,"Ġearthly":6488,"Ġdiscontent":6489,"Ġmisc":6490,"OURTH":6491,"Ġbanished":6492,"Ġadvise":6493,"ĠEdgar":6494,"Ġpalm":6495,"Ġweeps":6496,"iety":6497,"Ġlately":6498,"Ġdraws":6499,"noon":6500,"Ġsenators":6501,"Ġterror":6502,"Ġestim":6503,"Ġwishes":6504,"Ġgarland":6505,"Ġtowns":6506,"Ġenterprise":6507,"Ġexchange":6508,"Ġfeeling":6509,"ĠScene":6510,"Ġgranted":6511,"Ġago":6512,"Ġresolv":6513,"Ġerror":6514,"phelia":6515,"Ġofficers":6516,"ĠAdieu":6517,"Ġinjury":6518,"Ġweapon":6519,"Ġnecessity":6520,"ĠPolonius":6521,"soever":6522,"ĠGoneril":6523,"Ġjourney":6524,"ĠPortia":6525,"CATESBY":6526,"Ġstubborn":6527,"Ġspleen":6528,"ortensio":6529,"enstern":6530,"!\"":6531,"BOTH":6532,"Cry":6533,"Cons":6534,"Follow":6535,"Guil":6536,"Men":6537,"Master":6538,"Much":6539,"OBERON":6540,"Res":6541,"RIPPA":6542,"Wit":6543,"WIDOW":6544,"gn":6545,"hus":6546,"sir":6547,"when":6548,"zy":6549,"Ġ4":6550,"ĠENOBARBUS":6551,"Ġtaking":6552,"inate":6553,"Ġwot":6554,"Ġbay":6555,"Ġfret":6556,"ĠIm":6557,"Ġduke":6558,"ese":6559,"Ġcrest":6560,"Ġlent":6561,"Ġlying":6562,"Ġnim":6563,"Ġhom":6564,"Ġpate":6565,"lean":6566,"edition":6567,"illing":6568,"ĠWAL":6569,"ĠSIL":6570,"ĠSince":6571,"ĠCoun":6572,"ĠCARDINAL":6573,"Ġstro":6574,"ĠHu":6575,"ĠPar":6576,"ĠGra":6577,"ĠEX":6578,"ĠEvery":6579,"ĠLewis":6580,"Ġancest":6581,"Ġsuits":6582,"ĠFool":6583,"Ġspace":6584,"Ġfares":6585,"Ġshun":6586,"Ġconceive":6587,"ĠRem":6588,"Ġtheirs":6589,"Ġorn":6590,"Ġorchard":6591,"Three":6592,"ELBOW":6593,"Ġshoulders":6594,"uncle":6595,"ickle":6596,"Ġgraves":6597,"Ġhears":6598,"Ġwrink":6599,"Ġscour":6600,"Ġscore":6601,"Ġscope":6602,"Ġperhaps":6603,"ĠPrinces":6604,"Ġappl":6605,"Ġappointed":6606,"chester":6607,"Ġbegan":6608,"Ġremorse":6609,"clam":6610,"Ġsmiling":6611,"ĠBecause":6612,"ĠStill":6613,"Ġcarried":6614,"AGRIPPA":6615,"Ġadvent":6616,"Pray":6617,"eneral":6618,"Ġgrew":6619,"Ġstrive":6620,"Ġstrongly":6621,"lete":6622,"Ġneedful":6623,"Ġforeign":6624,"ĠArm":6625,"Attend":6626,"Ġwisely":6627,"ancing":6628,"Ġknights":6629,"Ġquarter":6630,"ĠRegan":6631,"Ġrebels":6632,"Ġbleeding":6633,"Ġinvisible":6634,"Ġtroubled":6635,"ARDINER":6636,"Ġtorch":6637,"ĠGreeks":6638,"ĠPoins":6639,"Ġrefuse":6640,"Ġpinch":6641,"Ġfleet":6642,"WILLIAMS":6643,"ĠCAESAR":6644,"Ġcombat":6645,"UGH":6646,"Ġinvention":6647,"GAUNT":6648,"Ġpilgrim":6649,"Ġvenom":6650,"ĠATTENDANTS":6651,"Ġgiddy":6652,"chbishop":6653,"Ġocean":6654,"Ġpeevish":6655,"ILO":6656,"JOHN":6657,"MA":6658,"Mark":6659,"Other":6660,"PR":6661,"TOR":6662,"Tru":6663,"ares":6664,"bles":6665,"bray":6666,"erer":6667,"gent":6668,"horse":6669,"iven":6670,"kn":6671,"tic":6672,"upt":6673,"who":6674,"hel":6675,"inous":6676,"Ġmoral":6677,"Ġwand":6678,"reme":6679,"rers":6680,"hant":6681,"ishes":6682,"Ġcaught":6683,"Ġlaughter":6684,"Ġyellow":6685,"Ġpark":6686,"Ġparent":6687,"Ġtoken":6688,"owbray":6689,"Ġgather":6690,"atic":6691,"Ġhall":6692,"Ġec":6693,"Ġeast":6694,"Ġwithdraw":6695,"Ġweek":6696,"asant":6697,"idus":6698,"ĠCordelia":6699,"ril":6700,"ĠOli":6701,"ĠOphelia":6702,"ĠHA":6703,"ĠMant":6704,"urvy":6705,"Ġdeaf":6706,"ANMER":6707,"Ġshapes":6708,"ĠPat":6709,"ĠPand":6710,"Ġsequ":6711,"Ġalleg":6712,"Ġvul":6713,"OLANIO":6714,"hered":6715,"Ġtheme":6716,"icilia":6717,"EDANT":6718,"Ġrate":6719,"aker":6720,"osop":6721,"Ġbread":6722,"Ġlooking":6723,"Ġcommons":6724,"Ġperf":6725,"Ġwhit":6726,"Ġruff":6727,"ENTON":6728,"blet":6729,"Ġconfusion":6730,"Ġcozen":6731,"Ġfever":6732,"Ġcurst":6733,"Ġcursed":6734,"Ġcurses":6735,"Ġbelov":6736,"Ġsubd":6737,"Ġaccident":6738,"Ġpraises":6739,"atient":6740,"Ġbank":6741,"Ġadvis":6742,"Ġcommands":6743,"ĠAthen":6744,"Ġgrowing":6745,"Ġsupply":6746,"Ġlearning":6747,"Ġinterest":6748,"Ġdelicate":6749,"prus":6750,"PARIS":6751,"standing":6752,"hilosop":6753,"Ġhairs":6754,"Ġpitiful":6755,"Ġdirect":6756,"Ġabsolute":6757,"Ġfamous":6758,"ĠMacduff":6759,"Ġresolution":6760,"Ġshadows":6761,"GUE":6762,"Ġambassad":6763,"Ġsuspicion":6764,"Ġwhiles":6765,"Ġconclusion":6766,"ULL":6767,"ULPH":6768,"Ġcontinue":6769,"Ġpetty":6770,"Ġgently":6771,"OCTOR":6772,"ĠANTONIO":6773,"Ġventure":6774,"POINS":6775,"Ġhaply":6776,"ĠBASTARD":6777,"ĠVII":6778,"ĠWorcester":6779,"Ġapprehend":6780,"Ġhigher":6781,"Ġpurchase":6782,"ĠTwo":6783,"SURREY":6784,"ĠKatherine":6785,"ĠTamora":6786,"ĠCouncil":6787,"Fair":6788,"FOURTH":6789,"Hence":6790,"Hang":6791,"Imp":6792,"Once":6793,"PLANTAGENET":6794,"Sing":6795,"Serv":6796,"aqu":6797,"aches":6798,"daughter":6799,"eves":6800,"from":6801,"gentle":6802,"ique":6803,"mian":6804,"nel":6805,"ras":6806,"ratch":6807,"sion":6808,"sire":6809,"vis":6810,"xford":6811,"Ġtut":6812,"Ġtum":6813,"Ġaunt":6814,"Ġward":6815,"Ġball":6816,"Ġburst":6817,"Ġbasket":6818,"itic":6819,"Ġdote":6820,"Ġope":6821,"Ġnation":6822,"Ġthrown":6823,"Ġhy":6824,"Ġhie":6825,"Ġpace":6826,"otted":6827,"owl":6828,"cell":6829,"cellent":6830,"ille":6831,"illy":6832,"ĠTRO":6833,"Ġevent":6834,"Ġug":6835,"ĠST":6836,"ERICK":6837,"ĠCade":6838,"rief":6839,"Ġstale":6840,"ĠOxford":6841,"ĠHELEN":6842,"ĠHots":6843,"ĠHortensio":6844,"ĠMonsieur":6845,"ĠMowbray":6846,"Ġlikes":6847,"ĠBR":6848,"ANIEL":6849,"ĠPaul":6850,"ĠLe":6851,"Ġsembl":6852,"runk":6853,"ĠDu":6854,"STANLEY":6855,"Ġshines":6856,"ALEX":6857,"iel":6858,"Ġknowing":6859,"ication":6860,"pper":6861,"Ġcann":6862,"Ġhated":6863,"epidus":6864,"EDERICK":6865,"ounded":6866,"ĠJud":6867,"owne":6868,"Ġflat":6869,"Ġparting":6870,"ĠNoble":6871,"Ġrapier":6872,"Ġafeard":6873,"Ġrul":6874,"Ġstanding":6875,"Ġnewly":6876,"Ġbegun":6877,"Ġremove":6878,"Ġbraw":6879,"clus":6880,"ĠISABELLA":6881,"Item":6882,"Ġcoll":6883,"Ġprice":6884,"Ġoverth":6885,"Ġbreaks":6886,"Ġbusy":6887,"ATHANIEL":6888,"ĠBEAU":6889,"Ġjoys":6890,"within":6891,"Ġdistance":6892,"Ġfields":6893,"ĠArchbishop":6894,"Ġcontented":6895,"Ġdivor":6896,"Ġbosoms":6897,"Ġproport":6898,"Ġwoeful":6899,"Ġinstruct":6900,"Ġinstruments":6901,"Ġveins":6902,"Ġstrumpet":6903,"Ġhostess":6904,"ĠMURTHERER":6905,"worth":6906,"headed":6907,"urio":6908,"Ġjewels":6909,"ĠThane":6910,"ĠLUCIUS":6911,"Ġeldest":6912,"SOOTHSAYER":6913,"Ġobedient":6914,"Ġtribunes":6915,"ogen":6916,"Ġassurance":6917,"shire":6918,"Ġcherish":6919,"Ġprodig":6920,"Ġwaters":6921,"Ġdischarge":6922,"Having":6923,"ĠBohemia":6924,"Ġinherit":6925,"ĠTurk":6926,"ĠSaturn":6927,"Ġincrease":6928,"ĠWinchester":6929,"ĠGuildenstern":6930,"ĠHotspur":6931,"),":6932,".\"":6933,"CUR":6934,"DITA":6935,"EARL":6936,"Find":6937,"Hel":6938,"Making":6939,"Os":6940,"Wilt":6941,"great":6942,"ips":6943,"mo":6944,"nes":6945,"ollo":6946,"take":6947,"ugg":6948,"yet":6949,"Ġtied":6950,"Ġale":6951,"Ġwander":6952,"Ġbru":6953,"Ġlin":6954,"Ġnon":6955,"Ġnet":6956,"Ġnest":6957,"Ġnails":6958,"Ġthin":6959,"Ġhue":6960,"Ġphilosop":6961,"stable":6962,"Ġgoose":6963,"Ġbeheld":6964,"sec":6965,"utch":6966,"utio":6967,"Ġnotice":6968,"ĠThose":6969,"ĠWindsor":6970,"ERAL":6971,"raise":6972,"raft":6973,"ĠHUM":6974,"ĠMER":6975,"Ġreach":6976,"ursed":6977,"Ġlift":6978,"roclus":6979,"Ġshade":6980,"ĠPho":6981,"ĠPers":6982,"ĠEros":6983,"ĠLo":6984,"ĠLepidus":6985,"Ġload":6986,"Ġsue":6987,"ilful":6988,"Ġspy":6989,"ĠDear":6990,"Ġshook":6991,"Ġmanif":6992,"Ġmanhood":6993,"ousillon":6994,"Ġamen":6995,"Ġamend":6996,"ulate":6997,"oler":6998,"Ġoracle":6999,"ĠKE":7000,"Ġrouse":7001,"Ġunjust":7002,"Ġhole":7003,"ĠExeter":7004,"Ġroses":7005,"Ġleap":7006,"lipp":7007,"Ġdeaths":7008,"Ġserious":7009,"Ġtroop":7010,"ANDRA":7011,"Ġperchance":7012,"lando":7013,"swer":7014,"Ġcontents":7015,"Ġmightst":7016,"Ġslay":7017,"Ġbegot":7018,"Ġcouldst":7019,"Ġpursue":7020,"Ġkingly":7021,"Ġmerc":7022,"Ġbrand":7023,"rantz":7024,"Ġcop":7025,"Ġrestore":7026,"Ġtravell":7027,"ontin":7028,"Ġprais":7029,"Ġcouch":7030,"Ġstrew":7031,"Ġlightning":7032,"Does":7033,"Ġvalue":7034,"Ġcarri":7035,"Ġstrikes":7036,"Ġlesser":7037,"UTENANT":7038,"Ġrunning":7039,"ĠSERVING":7040,"Ġcrying":7041,"ROMWELL":7042,"Ġmetal":7043,"PERDITA":7044,"Ġdispos":7045,"ĠSERVANTS":7046,"Ġdelivered":7047,"Ġterrible":7048,"Ġpoints":7049,"Ġsteep":7050,"Ġsignior":7051,"ossess":7052,"Ġprophes":7053,"Ġprovo":7054,"Ġcloset":7055,"brother":7056,"Ġmiracle":7057,"ĠProv":7058,"Ġapace":7059,"Ġforswear":7060,"ĠTitinius":7061,"IEUTENANT":7062,"ĠMARIA":7063,"Ġamongst":7064,"Marg":7065,"VIRGILIA":7066,"Ġconclude":7067,"Ġdestroy":7068,"ĠLUCENTIO":7069,"ĠARIEL":7070,"Ġurg":7071,"Ġconditions":7072,"Ġimmediate":7073,"Ġphysician":7074,"encrantz":7075,"Ġpreparation":7076,"lendower":7077,"ĠCyprus":7078,"Ġtreacherous":7079,"Ġgaze":7080,"Ġeagle":7081,"ĠOFFICERS":7082,"SIMPLE":7083,"Ġeasily":7084,"ĠBerowne":7085,"Ġceremony":7086,"Ġpronounce":7087,"hersites":7088,"Ġrecompense":7089,"Ġcommonwealth":7090,"Ġrebellion":7091,"ĠIsabel":7092,"ĠTROILUS":7093,"BL":7094,"BEDFORD":7095,"Dost":7096,"Giving":7097,"Host":7098,"JESSICA":7099,"Knock":7100,"Long":7101,"MARGARET":7102,"Old":7103,"SON":7104,"SLY":7105,"VOST":7106,"VINCENTIO":7107,"WINCHESTER":7108,"bell":7109,"bel":7110,"char":7111,"oft":7112,"poral":7113,"rish":7114,"side":7115,"tong":7116,"voy":7117,"zo":7118,"Ġte":7119,"Ġtab":7120,"Ġsouth":7121,"ino":7122,"inary":7123,"rence":7124,"Ġbon":7125,"Ġbur":7126,"eral":7127,"erity":7128,"orough":7129,"iting":7130,"Ġdat":7131,"Ġcove":7132,"Ġyes":7133,"Ġnam":7134,"aron":7135,"Ġhouses":7136,"Ġphra":7137,"Ġtooth":7138,"vels":7139,"stit":7140,"athe":7141,"ĠTr":7142,"Ġforms":7143,"ĠAene":7144,"Ġwept":7145,"ala":7146,"ĠSure":7147,"ERBURY":7148,"ĠCAP":7149,"ĠOld":7150,"ĠHo":7151,"Ġrev":7152,"ENAS":7153,"Ġshare":7154,"ONUS":7155,"andal":7156,"andria":7157,"ĠEn":7158,"Ġseize":7159,"nty":7160,"ĠFather":7161,"Ġspit":7162,"ĠDraw":7163,"ulf":7164,"ica":7165,"LOV":7166,"ĠTheir":7167,"Ġrhe":7168,"Ġrush":7169,"ignty":7170,"Ġlikewise":7171,"ĠThree":7172,"ANTERBURY":7173,"cipl":7174,"Ġaboard":7175,"ECENAS":7176,"liament":7177,"Ġfairies":7178,"Ġriot":7179,"Ġsweetly":7180,"Ġadvers":7181,"IANS":7182,"Ġrack":7183,"Ġragged":7184,"Ġkeen":7185,"REIGNIER":7186,"sses":7187,"Ġbrace":7188,"ĠPROVOST":7189,"Ġnatures":7190,"acles":7191,"Ġconspir":7192,"Ġcoin":7193,"Ġfalling":7194,"ension":7195,"UNG":7196,"Ġafternoon":7197,"ably":7198,"Ġmatters":7199,"Ġhusbands":7200,"Ġkills":7201,"Ġbeside":7202,"Ġhenceforth":7203,"Ġjustly":7204,"Ġdiscretion":7205,"Ġbreaking":7206,"Ġbush":7207,"IGONUS":7208,"Ġboots":7209,"Ġroyalty":7210,"Ġdistress":7211,"Ġmettle":7212,"CORIN":7213,"ĠWithin":7214,"BURGUNDY":7215,"Ġsurfeit":7216,"Ġburns":7217,"Ġweakness":7218,"Ġbeholding":7219,"Ġprovide":7220,"Ġclean":7221,"Ġcowards":7222,"Ġdirectly":7223,"Ġrebel":7224,"SILVIUS":7225,"Ġeffects":7226,"ĠCharmian":7227,"Ġgrandsire":7228,"Ġdestruction":7229,"Ġthroats":7230,"Ġbottle":7231,"Ġbehaviour":7232,"Art":7233,"Ġowes":7234,"Ġpotent":7235,"Ġtribute":7236,"Ġpersuade":7237,"Ġapparent":7238,"Ġstopp":7239,"Ġdeceit":7240,"Ġgrievous":7241,"Ġextremity":7242,"Ġneglect":7243,"Ġtrifle":7244,"Ġpearl":7245,"ĠCORIOLANUS":7246,"Ġrescue":7247,"Ġintelligence":7248,"Ġsociety":7249,"ĠOfficers":7250,"ĠImogen":7251,"Ġnimble":7252,"ĠEXETER":7253,"clamation":7254,"ĠHASTINGS":7255,"Ġallegiance":7256,"Ġvulgar":7257,"Osr":7258,"ĠAeneas":7259,"CY":7260,"DICK":7261,"EBE":7262,"Henry":7263,"Lay":7264,"Leave":7265,"Par":7266,"PIR":7267,"RIVERS":7268,"Sm":7269,"Send":7270,"Sleep":7271,"Welcome":7272,"aus":7273,"again":7274,"away":7275,"bol":7276,"lam":7277,"logue":7278,"name":7279,"nzo":7280,"oan":7281,"say":7282,"speak":7283,"scri":7284,"sbury":7285,"too":7286,"vity":7287,"word":7288,"work":7289,"ym":7290,"ĠRO":7291,"Ġtres":7292,"Ġming":7293,"Ġwalks":7294,"had":7295,"Ġbul":7296,"Ġbol":7297,"Ġbrown":7298,"erle":7299,"Ġfrank":7300,"Ġdine":7301,"eseech":7302,"Ġcook":7303,"Ġcud":7304,"Ġcalf":7305,"Ġlark":7306,"Ġthirty":7307,"arter":7308,"Ġpest":7309,"Ġpull":7310,"Ġtoday":7311,"Ġgame":7312,"Ġbeams":7313,"sey":7314,"sell":7315,"Ġmedd":7316,"eder":7317,"Ġforty":7318,"ĠAL":7319,"adies":7320,"ĠSE":7321,"ĠCar":7322,"ĠCAM":7323,"Ġsty":7324,"ĠHim":7325,"ĠHas":7326,"ĠMon":7327,"Ġliking":7328,"ĠBesides":7329,"orenzo":7330,"cknow":7331,"ARTHUR":7332,"ĠGlendower":7333,"ĠLAD":7334,"Ġseldom":7335,"ORTER":7336,"Ġsuc":7337,"Ġsuitor":7338,"Ġspread":7339,"ĠDun":7340,"ĠNurse":7341,"Ġvass":7342,"Ġamends":7343,"Ġamorous":7344,"OLER":7345,"Ġblue":7346,"Ġblaz":7347,"Ġswain":7348,"Ġswears":7349,"eling":7350,"Ġsirs":7351,"ĠThurio":7352,"Ġdise":7353,"Ġdispose":7354,"Ġoutra":7355,"Ġtrunk":7356,"Ġprocess":7357,"Ġexper":7358,"Ġexile":7359,"Ġaloud":7360,"ickly":7361,"Ġflout":7362,"Ġlevel":7363,"PHEBE":7364,"Ġsweetest":7365,"IANUS":7366,"Ġperpet":7367,"Ġeverl":7368,"Ġcontract":7369,"Ġpreserve":7370,"Ġbeget":7371,"Ġrepose":7372,"Ġsets":7373,"Ġanswers":7374,"AMUS":7375,"Ġbeloved":7376,"Ġaccom":7377,"Ġaccess":7378,"ĠStep":7379,"Ġlights":7380,"used":7381,"Ġsounded":7382,"Ġbox":7383,"Ġstrangely":7384,"Ġprompt":7385,"Ġtemple":7386,"Ġcomforts":7387,"Ġexceeding":7388,"Ġworking":7389,"Ġdeputy":7390,"Ġsuffic":7391,"Ġskin":7392,"Ġvictor":7393,"Ġdrinking":7394,"ĠFRENCH":7395,"Ġapprove":7396,"Ġbonds":7397,"ĠOrlando":7398,"Ġindign":7399,"Ġshield":7400,"ĠCounty":7401,"Ġproceeding":7402,"cape":7403,"ĠShow":7404,"ĠHelena":7405,"Ġevils":7406,"ĠGentleman":7407,"Ġconceal":7408,"Ġurge":7409,"Ġdismiss":7410,"About":7411,"ĠMessala":7412,"Ġmedic":7413,"Ġhungry":7414,"ĠCAIUS":7415,"DOLABELLA":7416,"Ġsteps":7417,"MONTANO":7418,"Ġopposite":7419,"ĠOctavius":7420,"Ġlodging":7421,"ĠNORTHUMBERLAND":7422,"Ġfrost":7423,"Ġfantast":7424,"ĠSHALLOW":7425,"ĠVerona":7426,"ĠPisanio":7427,"Ġyesterday":7428,"ĠDenmark":7429,"Ġclerk":7430,"TITANIA":7431,"ĠLauncelot":7432,"ĠWALES":7433,"ĠHugh":7434,"ĠMantua":7435,"ĠAthenian":7436,"Ġugly":7437,"ĠHELENA":7438,"ĠMERCHANT":7439,"ĠKEEPER":7440,"Ġphrase":7441,"ĠLADIES":7442,"CROMWELL":7443,"Dies":7444,"DOCTOR":7445,"Glend":7446,"GARDINER":7447,"Le":7448,"Lords":7449,"LARTIUS":7450,"Many":7451,"NOX":7452,"NATHANIEL":7453,"Off":7454,"OFF":7455,"PTAIN":7456,"Rather":7457,"Tr":7458,"TIS":7459,"ais":7460,"fool":7461,"got":7462,"ien":7463,"lter":7464,"may":7465,"mother":7466,"part":7467,"rity":7468,"roof":7469,"xcom":7470,"yr":7471,"Ġtur":7472,"Ġtren":7473,"Ġav":7474,"oubt":7475,"inore":7476,"Ġmould":7477,"Ġwore":7478,"reet":7479,"hast":7480,"Ġdun":7481,"Ġdiet":7482,"Ġlads":7483,"Ġnap":7484,"enches":7485,"Ġthread":7486,"Ġped":7487,"Ġpul":7488,"Ġpush":7489,"hath":7490,"Ġbere":7491,"Ġbeds":7492,"ĠThersites":7493,"ĠAaron":7494,"key":7495,"adle":7496,"asp":7497,"alty":7498,"ĠSet":7499,"ĠCousin":7500,"ric":7501,"rial":7502,"Ġstout":7503,"Ġstum":7504,"Ġliver":7505,"verty":7506,"ĠBOY":7507,"INOR":7508,"Ġdove":7509,"Ġwillow":7510,"ONIUS":7511,"ĠPart":7512,"ĠPAND":7513,"ĠGrem":7514,"ĠGeneral":7515,"ĠEp":7516,"ĠLeave":7517,"ORGE":7518,"Ġlodge":7519,"ĠDEM":7520,"ĠDavy":7521,"Ġfact":7522,"STER":7523,"Ġvault":7524,"Ġmanage":7525,"ALICE":7526,"antus":7527,"Ġupright":7528,"Ġgoods":7529,"emantus":7530,"Ġgoss":7531,"Ġthereby":7532,"ured":7533,"Ġarise":7534,"umn":7535,"umes":7536,"ELINOR":7537,"igent":7538,"Ġseeks":7539,"Ġlikely":7540,"Ġbran":7541,"Ġdiscipl":7542,"Ġquest":7543,"ĠJes":7544,"ĠJaqu":7545,"Ġpoverty":7546,"Ġexpl":7547,"Ġalt":7548,"Ġoffences":7549,"Ġroaring":7550,"Ġbetimes":7551,"Ġflame":7552,"Ġbreeding":7553,"Ġfearing":7554,"Ġriver":7555,"CAPTAIN":7556,"iteous":7557,"Ġrais":7558,"Young":7559,"Ġappoint":7560,"chel":7561,"chess":7562,"Ġendeav":7563,"Whereof":7564,"mpets":7565,"Ġyoungest":7566,"Ġguide":7567,"ivity":7568,"ĠBehold":7569,"Ġcharg":7570,"Ġpeer":7571,"Ġrightly":7572,"Ġimped":7573,"Ġdrag":7574,"Ġbidding":7575,"Ġaccording":7576,"Ġdoublet":7577,"Ġthankful":7578,"mbers":7579,"Ġhappily":7580,"verses":7581,"atesby":7582,"keness":7583,"lsinore":7584,"Ġcouncil":7585,"CRANMER":7586,"Ġyielded":7587,"Ġparce":7588,"Ġwrites":7589,"PANDULPH":7590,"Ġsovereignty":7591,"Ġsteward":7592,"Ġsignify":7593,"Ġprovided":7594,"Ġtax":7595,"Ġwonderful":7596,"IFFORD":7597,"Ġaged":7598,"Ġactions":7599,"Comes":7600,"Ġinterp":7601,"Ġseverally":7602,"Ġkingdoms":7603,"ĠDidst":7604,"Ġresolve":7605,"ursions":7606,"spir":7607,"Ġsecrets":7608,"Ġerr":7609,"ĠRosencrantz":7610,"ĠANTIPHOLUS":7611,"ĠSilence":7612,"Ġqualities":7613,"Ġelements":7614,"Ġgrandam":7615,"Ġmutiny":7616,"Ġinstantly":7617,"Ġinjuries":7618,"ĠOnly":7619,"Ġgovernment":7620,"Ġcomplain":7621,"ĠApemantus":7622,"Ġslip":7623,"Ġwager":7624,"Ġimagination":7625,"rumio":7626,"Ġbeggars":7627,"ĠCLIFFORD":7628,"ĠBASS":7629,"ĠCorioli":7630,"Ġloyalty":7631,"repare":7632,"Ġtreachery":7633,"Ġperjur":7634,"ĠOctavia":7635,"Ġmurderer":7636,"ĠMercutio":7637,"Ġpierce":7638,"ĠOLI":7639,"ĠYOU":7640,"Ġtouches":7641,"Ġbeguile":7642,"Ġdukedom":7643,"Ġsplit":7644,"Ġstrokes":7645,"ĠCAPTAIN":7646,"ĠGremio":7647,"ĠDEMETRIUS":7648,"Else":7649,"Fall":7650,"Fran":7651,"FENTON":7652,"HY":7653,"LL":7654,"Pet":7655,"RATCLIFF":7656,"Seem":7657,"Zounds":7658,"bon":7659,"bast":7660,"cock":7661,"fast":7662,"face":7663,"jud":7664,"join":7665,"mission":7666,"ns":7667,"Ġtim":7668,"heard":7669,"Ġax":7670,"Ġmethought":7671,"Ġwaking":7672,"Ġwipe":7673,"Ġbag":7674,"llen":7675,"Ġfan":7676,"Ġfount":7677,"ĠIMO":7678,"Ġdit":7679,"Ġdil":7680,"Ġdial":7681,"Ġdiff":7682,"Ġlower":7683,"enius":7684,"Ġthrew":7685,"Ġhounds":7686,"anish":7687,"anley":7688,"Ġhaw":7689,"Ġnotes":7690,"Ġnoted":7691,"ĠTALBOT":7692,"enton":7693,"add":7694,"asing":7695,"ids":7696,"alter":7697,"ĠHouse":7698,"ĠMother":7699,"Ġrear":7700,"ENICE":7701,"Ġlikeness":7702,"ĠBear":7703,"ĠBISHOP":7704,"INO":7705,"room":7706,"ĠPR":7707,"ĠPut":7708,"essica":7709,"ĠGrumio":7710,"ĠEast":7711,"ĠEARL":7712,"Ġseiz":7713,"Ġspr":7714,"Ġspee":7715,"ĠDIO":7716,"Ġfawn":7717,"ĠNed":7718,"ALA":7719,"Ġamity":7720,"ulous":7721,"Ġconsequ":7722,"Ġknowest":7723,"Ġblot":7724,"Ġworks":7725,"arer":7726,"Ġrat":7727,"ĠHec":7728,"Ġprog":7729,"ĠJustice":7730,"ĠJoan":7731,"ĠJessica":7732,"Ġexerc":7733,"ĠVENICE":7734,"ESSALA":7735,"Ġtelling":7736,"Behold":7737,"lius":7738,"manner":7739,"Ġcalled":7740,"PETER":7741,"Ġrust":7742,"Ġcompare":7743,"their":7744,"ĠCawd":7745,"angers":7746,"Ġbragg":7747,"iano":7748,"ianus":7749,"Ġcoxcom":7750,"Ġaccord":7751,"ĠClot":7752,"ĠStri":7753,"omething":7754,"Ġcarries":7755,"Ġgrass":7756,"comp":7757,"ranch":7758,"withstanding":7759,"Ġstraw":7760,"Ġtalking":7761,"Ġpromised":7762,"Ġsuppose":7763,"formed":7764,"Ġdoubtful":7765,"Ġdefy":7766,"ublius":7767,"Ġsadness":7768,"Ġsenseless":7769,"Ġinfant":7770,"Ġbargain":7771,"Ġbarbar":7772,"Ġpleasing":7773,"Ġrecon":7774,"Ġpays":7775,"Ġsurvey":7776,"Ġrequite":7777,"eshrew":7778,"Ġexpedition":7779,"Ġpropert":7780,"Ġembass":7781,"Ġheirs":7782,"Ġhideous":7783,"Ġreligious":7784,"idden":7785,"SILENCE":7786,"Ġships":7787,"Ġsafely":7788,"Ġbowels":7789,"Ġreceived":7790,"Ġprotect":7791,"Ġwhipt":7792,"ĠAdam":7793,"Ġconclud":7794,"Ġinsol":7795,"Ġgreeting":7796,"ĠBlunt":7797,"ĠConstable":7798,"Ġmourning":7799,"Ġhorrible":7800,"Ġimmortal":7801,"Ġexpectation":7802,"Ġconqueror":7803,"Ġfuneral":7804,"Ġdetermine":7805,"Adv":7806,"ĠOFFICER":7807,"Ġimperial":7808,"ĠNORFOLK":7809,"friend":7810,"Believe":7811,"ĠVolsces":7812,"Ġdowry":7813,"ĠGUARD":7814,"Ġforsake":7815,"ĠTribunes":7816,"Ġrejoice":7817,"Ġcharacter":7818,"Ġmerrily":7819,"Ġconvenient":7820,"Ġinnocence":7821,"Ġscruple":7822,"ERALD":7823,"LOVELL":7824,"Ġexplo":7825,"ĠIMOGEN":7826,"Ġspeeches":7827,"ĠDIOMEDES":7828,"ĠCawdor":7829,"'!":7830,"Alex":7831,"Ch":7832,"CIN":7833,"EB":7834,"Fore":7835,"Fie":7836,"Gads":7837,"Has":7838,"Kiss":7839,"Lea":7840,"Lies":7841,"MAY":7842,"MESSALA":7843,"NA":7844,"PEDANT":7845,"Se":7846,"YS":7847,"against":7848,"bation":7849,"cover":7850,"field":7851,"ium":7852,"lord":7853,"ming":7854,"might":7855,"must":7856,"nken":7857,"rt":7858,"sm":7859,"tance":7860,"teen":7861,"water":7862,"Ġ&":7863,"Ġtig":7864,"Ġacknow":7865,"Ġmas":7866,"Ġmiles":7867,"Ġmiddle":7868,"Ġwet":7869,"Ġwak":7870,"reason":7871,"hael":7872,"orp":7873,"lling":7874,"Ġfem":7875,"itation":7876,"Ġdi":7877,"Ġdiest":7878,"Ġox":7879,"Ġnarrow":7880,"Ġhedge":7881,"vet":7882,"Ġbelike":7883,"Ġinfection":7884,"Ġmyster":7885,"Ġhare":7886,"cho":7887,"ĠToo":7888,"Ġforc":7889,"ourn":7890,"ourage":7891,"ĠWalter":7892,"Ġhist":7893,"ĠCons":7894,"ripp":7895,"ĠHOST":7896,"ENN":7897,"Ġlions":7898,"ĠBoth":7899,"Ġdefe":7900,"Ġdefect":7901,"ĠPedro":7902,"ĠGall":7903,"ĠLorenzo":7904,"ORUS":7905,"Ġann":7906,"Ġsugg":7907,"ĠFore":7908,"ifferent":7909,"Ġspar":7910,"Ġspark":7911,"Ġspect":7912,"ĠDown":7913,"ĠDROMIO":7914,"Ġfaction":7915,"Ġvoy":7916,"Ġshri":7917,"Ġshout":7918,"Ġconver":7919,"Ġconverse":7920,"empl":7921,"ichael":7922,"Ġcanker":7923,"Ġworshi":7924,"Ġroof":7925,"Ġrites":7926,"Ġjot":7927,"Ġenm":7928,"Ġaloft":7929,"osing":7930,"aph":7931,"Ġbreeds":7932,"Ġriches":7933,"Ġscurvy":7934,"Ġscandal":7935,"Ġhasty":7936,"Ġpreced":7937,"Ġafoot":7938,"aints":7939,"OMAS":7940,"Ġevermore":7941,"Ġcontain":7942,"Ġnobleman":7943,"Ġhousehold":7944,"ĠBeing":7945,"abs":7946,"Ġresign":7947,"Ġbacks":7948,"ĠAntip":7949,"Ġmoves":7950,"Ġthrong":7951,"Ġassault":7952,"Ġcouple":7953,"ĠStanley":7954,"Ġhelm":7955,"Ġsurety":7956,"Ġcarriage":7957,"Ġbeaut":7958,"Ġinstance":7959,"Ġboar":7960,"Ġcareful":7961,"Ġcareless":7962,"Ġbreathing":7963,"Ġdrunken":7964,"Ġforehead":7965,"Ġjudg":7966,"Ġsisters":7967,"Ġsitting":7968,"Ġcraves":7969,"Ġafford":7970,"rewsbury":7971,"Ġinfirm":7972,"LENNOX":7973,"Ġacts":7974,"Ġdivide":7975,"Ġdivision":7976,"Ġrequire":7977,"Ġgallows":7978,"Ġfourteen":7979,"Ġpenit":7980,"Twill":7981,"chers":7982,"Ġsufferance":7983,"Ġbeastly":7984,"Ġgrieves":7985,"Ġdirection":7986,"AVY":7987,"Ġmarching":7988,"Ġflattery":7989,"Ġcruelty":7990,"Ġschol":7991,"ĠVenus":7992,"Ġcreate":7993,"Ġdearer":7994,"FREDERICK":7995,"mongst":7996,"Ġdismal":7997,"Above":7998,"ĠApollo":7999}